/**
  ******************************************************************************
  * @file    network_data_params.c
  * @author  AST Embedded Analytics Research Platform
  * @date    2026-04-14T16:23:59+0530
  * @brief   AI Tool Automatic Code Generator for Embedded NN computing
  ******************************************************************************
  * Copyright (c) 2026 STMicroelectronics.
  * All rights reserved.
  *
  * This software is licensed under terms that can be found in the LICENSE file
  * in the root directory of this software component.
  * If no LICENSE file comes with this software, it is provided AS-IS.
  ******************************************************************************
  */

#include "network_data_params.h"


/**  Activations Section  ****************************************************/
ai_handle g_network_activations_table[1 + 2] = {
  AI_HANDLE_PTR(AI_MAGIC_MARKER),
  AI_HANDLE_PTR(NULL),
  AI_HANDLE_PTR(AI_MAGIC_MARKER),
};




/**  Weights Section  ********************************************************/
AI_ALIGNED(32)
const ai_u64 s_network_weights_array_u64[2565] = {
  0xbf3c311cbf9a10faU, 0xbb7942e3be4aa669U, 0xbe565027bf64b61cU, 0xbeee6debbf4e5b3eU,
  0xbfa1d8bdbf5ca1faU, 0xbf4862723e931956U, 0xbf99260e3ddc7175U, 0xbf8be183bf430392U,
  0xbfc54d143da77bb9U, 0x3e8975923d1192ebU, 0x3ecfc3143f2e065dU, 0x3f9e303f3f7d7df8U,
  0x3fa87cf33f7b99bdU, 0xbf892db83fbdbb13U, 0xbe8acbecbe992a56U, 0xbf51b1c93ea55d67U,
  0xbfa4865abf9f8ff6U, 0xbfe1b955bcc0ead8U, 0x400aa11140090d50U, 0x3fd7185c3ff3c1e9U,
  0x3d5af85f3f841d8dU, 0xbea1838b3ef64c21U, 0xbdc30dbebe2b1ef9U, 0xbfaeb0c5bf7f0314U,
  0xbdd00a353edffe6cU, 0x3f840f03bf0ab7ddU, 0x3ee8ae823f8648b4U, 0xbf5bd5d4bf95ca5eU,
  0xbef967ba3ef5b267U, 0x3fb4f48b3ee6761eU, 0x3f917b1a3f290c93U, 0x3fae34e43ed96d1eU,
  0x3f82fbb23fbc7553U, 0xbed4305b3f01ac1cU, 0xbfc7fbd4be318ad7U, 0xbf007d08bff47c02U,
  0x3ff0d5843f7833ebU, 0x4001d8403fd1df64U, 0x3fdd5408400d3793U, 0x3ee870eb3f5b2e4fU,
  0xbe8995273e1555ebU, 0xbfa5108fbf895a56U, 0x3f1425823f26d95dU, 0x3f24b1783e4ca2acU,
  0x3f6007db3f88e19dU, 0x3fa19e503f6b5a06U, 0xbf12c9f73f25215aU, 0x3eb59ab1be74f5b8U,
  0xbf439705bf9ab4e6U, 0x3f5910273e340e2aU, 0x3f1246543f72825fU, 0x3fb9750a3fdbb798U,
  0x3fb8a1fe3f95ab20U, 0x3fa467f03fb1b4f3U, 0x3f1928343ec338beU, 0x3f0f4dadbf2f62f9U,
  0xbf8d62b03f1aafc5U, 0x3da9a1443f4868f4U, 0x3fdc65c0bfc13c85U, 0x3f59fc773f9c6f99U,
  0x3fdce58c3fe1eb85U, 0x3f7e102a3f97c8b7U, 0x3ed7e6043f95c0b5U, 0xbda13320be2367d8U,
  0x3cfcf1503d8a5f90U, 0xbe88ddcbbe07e293U, 0xbe372300be23f448U, 0xbd19ca06be65ea3eU,
  0x3fb9270f3f5120f5U, 0xbd42cc6dbf4900ffU, 0xbff885383f034674U, 0xbfcbbd12bfc5d9eaU,
  0x3f7c367c3f870a50U, 0x3f7da267bae6a038U, 0x3eea79b33d2b561cU, 0x3f4f6f763d463182U,
  0xba8ea2d23cbf8768U, 0x3eedc502bb08514fU, 0x3efc3a2b3f250805U, 0x3f9cd033be8fb0f3U,
  0x3e66fbcd3e262061U, 0x3e2d6de73e5bd9d1U, 0x3ee370c9be066e8fU, 0x3e004cb73f068a7fU,
  0x3f62b4bf3e21a1a3U, 0x3e96c55cbdc0bb61U, 0x3eb372bdbd3f37cfU, 0x3e5785993c091888U,
  0x3b939d1d3d7a2f97U, 0x3dd690493e2576f1U, 0x3ee11eeabe4b1fa3U, 0xbd4e285e3eb70fafU,
  0x3f780e8d3c918d9eU, 0x3e518f03bf08d221U, 0x3ea0805f3e9fa9e7U, 0x3d291889bd6d6280U,
  0x3e4a736b3d6a5d41U, 0x3dd6a204bf82947fU, 0x3e8d90bcbf7fbd3aU, 0xbe171817bf745b2cU,
  0xbe1fcb79bf82a331U, 0xbe7d4d17bfca5756U, 0xbe6f8f9f3ea3421eU, 0xbce5d9a43d82a369U,
  0x3dea8710bc33f892U, 0x3daa85a53e81042bU, 0x3d0a815c3eb51787U, 0x3ecadbfa3d3c6df9U,
  0x3e6e55b03eaee605U, 0x3e129b433f767ae4U, 0x3ea4365abd3cba72U, 0x3e2c1d753d925aafU,
  0xbda4cb3d3caf2c72U, 0x3d8d68893e750fb6U, 0xbcc1c7193eecbb84U, 0x3e965946bc1c10a7U,
  0xbd9670b13eaf30dfU, 0x3e75f17b3f3ec000U, 0x3e8c34003e27c064U, 0xbd5f24bebbbf97f0U,
  0x3df3a3843da0660fU, 0x3dd474cebf6b4759U, 0xbd96b0a9bedf2758U, 0x3caefabebf956142U,
  0xbf721e81bf2236d0U, 0xbe889bd4bf293eaeU, 0xbdc70ac43cee3eceU, 0x3ccb4f753d62123aU,
  0x3e61f61a3e2e5a89U, 0x3e941f3dbfca56afU, 0xbdf616aebf1774a7U, 0x3ebbc970bfec4654U,
  0xbfd348a0bf6de021U, 0xbf0208ce3f7e8e04U, 0xbe691e4dbd6a5e90U, 0x3eb585293d2531f2U,
  0x3e43ef863e14f068U, 0x3dcf517ebf98d495U, 0xbd7d0b69bf03bfa3U, 0x3e21bd49bf867ccbU,
  0xbfcff6b0bf2b2ab4U, 0xbe2320b53f3f0900U, 0xbdbb6762bac68a03U, 0x3d48beafbd7091e0U,
  0x3dde8bcd3d42769eU, 0x3db2d9c9bf8b6ef2U, 0xbdd65a9abf75fc47U, 0xbafcfd0bbf581572U,
  0xbf9ebdc9bf77eb95U, 0xbe80a005bf810a6aU, 0xbe86c7893dfcc2d3U, 0x3df04c8fbda0918eU,
  0x3e2d495f3d996f19U, 0x3e149c80be9964fdU, 0x3db47221bf15f8f8U, 0xbda604cebeab8a86U,
  0xbeb7b075bef076cdU, 0xbe65e3c7be7699eeU, 0xbe024f76bdd65327U, 0x3d9b0ce93ce1968cU,
  0x3c71f7683d47b234U, 0x3cf443713e8694f4U, 0xbce525f33f4e6bf2U, 0x3e5da40fbf26bb06U,
  0x3c1b4a673ef8fd52U, 0x3d2736a53f7f9f83U, 0x3e82a24d3d39f48dU, 0x3df24c6abd31bdf0U,
  0x3e6539183ddf53cfU, 0x3e7b458fbf4ee9e9U, 0x3e33df57be9ae616U, 0x3e455306bf275ad2U,
  0xbea31534bf410ec6U, 0xbe3fc6643e458a7dU, 0xbd3376c83e61d58dU, 0x3d9f06683bfeb870U,
  0x3e3413003dacca01U, 0x3dce86aebde21419U, 0x3d7f69f1bf0a648eU, 0xbd09e5b5bed53fa3U,
  0xbd025047bf21e9d3U, 0xbe0ae084bf56c090U, 0xbe3fd0d93d080b51U, 0x3caf4636bd431cf3U,
  0x3d2585903db90b56U, 0x3e2bada9bc716ddfU, 0x3d6c171ebed7a014U, 0x3dea0abfbe55da16U,
  0x3d3ea4f2bf1e1b41U, 0x3cfcc095be8825deU, 0xbe0a4f453cff924fU, 0x3cff6bfcbd0f8b10U,
  0x3dfa03593e4432a5U, 0x3e8039a1bdd9e789U, 0x3e8eb1ebbf18b552U, 0x3e287774be9d6f0dU,
  0x3e5983d0bf22e3c4U, 0xbde9a6cbbeeedc1bU, 0xbdbcc4cf3c3ff3dcU, 0x3e120a5c3d3b70d6U,
  0x3dcd0fe83e273586U, 0x3e07bfea3e4fdc8cU, 0x3e2a692e3db6bd88U, 0x3c0664743e1e4001U,
  0x3e8364913e1867e6U, 0x3dbf377fbf124a4bU, 0x3e1d23d63c1d7aeaU, 0x3e50dbbe3c992500U,
  0x3e24dd4b3e16b419U, 0x3e13229c3cc6cabdU, 0x3e4b9b5f3e1fd0faU, 0x3d548385be5f7a37U,
  0x3e2e258c3dbe000dU, 0x3cd948183e769ef9U, 0x3dec8de2be89f489U, 0x3e0c33d83d29bdb0U,
  0x3ea02c623e756693U, 0x3e6194633e43c6f0U, 0x3eb687ac3c317f1bU, 0x3dfa6ad33c51177dU,
  0x3f03ed973e0f6bb0U, 0x3e8033343e807bf2U, 0x3e4c9b8cbf15e27eU, 0x3e7335debd87fbc0U,
  0x3d5e805c3b995038U, 0x3d8c0a93bee90857U, 0x3c25a127bfa1309aU, 0xbe6bf50cbe9ccf11U,
  0x3dd19666bf7ba36fU, 0xbe7ca215be857075U, 0xbe9c85ffbe9f4b55U, 0x3d2bcb7f3cdf9fb4U,
  0x3d3af171bdaf5696U, 0xbcdb5dd1bdcefbffU, 0x3e0afbbcbe79b240U, 0x3d0c9c43be92f3a8U,
  0x3dc1035dbe301da7U, 0x3ce4bede3ee7d194U, 0x3cdf9677be383aa1U, 0xbc51ffeabca0f360U,
  0x3d0ba9b0bd853d2dU, 0xbc9dc6993cc19e29U, 0xbd551745be457bbfU, 0xbe655a21be9c251bU,
  0x3ccf4819bd583ca4U, 0x3da0ead8bda4a8f0U, 0x3d991559bedd9c97U, 0xbda3e6273d3ebfc2U,
  0x3d8f5a8c3d526711U, 0xbd06e141bd1aa390U, 0x3de5e455be6a4a2aU, 0x3d893c5bbe568a08U,
  0x3d75016bbe13eef4U, 0xbd75e7f53e82f454U, 0xbd4d45d9be11ce20U, 0x3e13686b3be8a850U,
  0x3dada4ec3dc6dcc7U, 0x3ddc0b233e317e91U, 0x3db91ce53dd9b11cU, 0x3dd5f15bbd64ccceU,
  0x3e9aa0d13d6eeff1U, 0x3d86d7d83f123b4bU, 0x3d89d218be814f81U, 0x3e1371b3bd7b2ccbU,
  0xbc491965bd39d3dbU, 0x3daa83933eb99fc4U, 0x3d8ef5f43e35af96U, 0xbd38e4993d10e6f0U,
  0x3e98c7a63e67fe84U, 0x3eaf7b813e6720b5U, 0x3e515093befe0493U, 0x3e1d0e7f3bbe8cd0U,
  0x3e0e06823e420ce4U, 0x3e1e975ebe44ab90U, 0x3e5c5021bdb51fe9U, 0x3e14a411bef72fc4U,
  0x3cbe3da1bdb2d0f8U, 0x3d1d4f2e3f0058b1U, 0x3cd4d7ffbe05608fU, 0x3e9f33fe3cabf89cU,
  0x3e9be3b93e3f1ecdU, 0x3ea769b3bd016b5eU, 0x3de0acaf3d44b857U, 0x3e985e44bea7a0adU,
  0x3e1c57ac3d22a103U, 0x3d1c46063f3389d6U, 0x3df6126ebea6085eU, 0x3eab3821bd47f8fbU,
  0x3e1224f53e2dcf70U, 0x3e279b8e3efab560U, 0xbda184083ec7e593U, 0x3e9a060d3e830b98U,
  0x3e874d793eb9673eU, 0x3ec090c43f3d57ecU, 0x3ec3fe85bea3f16dU, 0x3ed0f9d8bd9fbbceU,
  0x3e1b001d3e16e0eeU, 0x3e59f72cbf100c50U, 0x3dd766d8bf049610U, 0x3d88f274be89c23aU,
  0xbeba18e9bf027499U, 0xbeffee713f5c770bU, 0xbeb2f5a4be9d169eU, 0x3ec93f593d763d1aU,
  0xbdc90ef5bde3d636U, 0xbd34d676be2f9485U, 0xbe90d7723e204fcbU, 0x3eb4c605be150a58U,
  0xbf3ae8bdbcf7dffcU, 0xbe079e203fd21546U, 0xbd64438abe7d7c3aU, 0x3ec9e821bd823a74U,
  0xbdfc6247bde36a62U, 0x3d2f5d98be46c182U, 0xbe048eb43eec48fcU, 0x3f053c89beaafb33U,
  0xbf058ab63e9957c8U, 0x3cfad2893fe0b5d5U, 0x3e5a6c2fbe0f70eeU, 0x3e9b73f7bd746176U,
  0x3d4fad7cbdc215b1U, 0x3cd61030bbf8e942U, 0x3e87fb77bee00980U, 0xbe992d9bbd376ac9U,
  0x3ea2112dbe422813U, 0xbd885ff83ebd6688U, 0xbdd9e59cbe688112U, 0xbd95a4c43d2e4a22U,
  0x3c6a840abc51887aU, 0xbc9e096f3d267f13U, 0x3e0d7a28be711a23U, 0xbdc8a3fdbd43241eU,
  0x3eaf853cbe77610cU, 0xbdb9bac23ebf2528U, 0xbe2f2379beadbfbfU, 0xbd367831bd0f5a08U,
  0xbd881449bd2d2786U, 0xbd1bdf45bdfc889dU, 0x3bcf3ccfbe7c037eU, 0x3e1c0190bd1bfbc0U,
  0x3db0668bbe973eacU, 0xbe18e2b83f2c69beU, 0xbdfabeb0be81bd28U, 0x3db341b63d413182U,
  0xbf813863bf4c80d1U, 0xbf81c9123d92b56dU, 0xbdc8b638bd20a964U, 0xbf0f04f13d8dbe6aU,
  0x3e8b05e63e26010dU, 0x3dab50683ee48fc8U, 0x3da3158bbf026322U, 0xbf087d013da94961U,
  0xbfadd956bf9966ecU, 0xbfbd9b653e50cc68U, 0x3d4af1efbd8e3c4fU, 0xbe70757f3cbe02e4U,
  0x3ea1c8053d8abb9aU, 0x3d3cb6663f3ec80aU, 0x3e039552bf1aca8cU, 0xbecf2c71bda01753U,
  0xbfc60e49bfb3c93eU, 0xbfdec55c3e570f94U, 0x3e9a8ab33e0711b5U, 0xbd9b59513e6f2492U,
  0x3f1a334f3e4c8ff4U, 0x3e5ac1d63f591de5U, 0x3dfdf62fbf12f666U, 0xbf01d1b8bd909bb7U,
  0xbfc78b7dbfc9d532U, 0xbfcdfff53e6f9b69U, 0xc00bffc63f72ce65U, 0xbea9f96abf847494U,
  0xc01941ea3f30ee64U, 0xbeb6df9a3fa6836bU, 0xbe9a5214bf4d0d83U, 0xbf93df5abd88ee1aU,
  0xbfafd88dbfa94722U, 0xbfc83389bee36666U, 0xbfb4c8e13dd0e921U, 0xbf8478edbfa28fbdU,
  0xbfc2c763bcf950acU, 0xbf809df53f0a68c0U, 0xbf7ef229bf8dc2f3U, 0xbfac42d4bc956cccU,
  0xbfb005bcbfa4e038U, 0xbfbbba05bf9ee014U, 0xbfa8eed7bfb6456aU, 0xbfbf6815bf778062U,
  0xbf035a75bfc34f8bU, 0xbfa8e2f0bfb91129U, 0xbfb19719bfa40b3bU, 0xbfb3a7993c9061bcU,
  0x3e13679f3d99176bU, 0x3e46ebfcbe603309U, 0x3d78c464bf8add6aU, 0x3eb78a313dd29ce9U,
  0xbe47b258bf6f7f9fU, 0xbec7b3273f9c1238U, 0xbf096ddabe938347U, 0x3e6d9772bd3bac93U,
  0x3ceb89d7bc080dbeU, 0x3dd2b9713dc57be9U, 0x3e01457fbeb96cc3U, 0xbd10916d3e2f1f69U,
  0x3cc6b083bd304a0dU, 0xbbb3e169be7b4cf6U, 0xbd8d1f9cbda7adeaU, 0x3d01eb01bc21b728U,
  0x3d86c9b7bda34938U, 0x3d31b44fbedf909cU, 0xbd894456be85de5dU, 0xbd82233dbf1b9247U,
  0xbec2444bbed5f052U, 0xbe7fcea6bfcb8bebU, 0xbe49bc683e5d2309U, 0xbd892387bc35a2a8U,
  0xbe8ccc1ebe90dc0fU, 0xbecc23373f03387dU, 0x3ed0d0a03ede3d8dU, 0x3ec0c7863f44919cU,
  0x3f29b39b3ed695acU, 0x3ebd7026bea64703U, 0x3eaa00483f41bf5dU, 0xbddfc4babd71db26U,
  0xbe439410be3df9b9U, 0xbeb7d1853ef80041U, 0x3ea0ea193eb4dba5U, 0x3f057bf83e8cd265U,
  0x3eda899f3e7675b0U, 0x3e88ccda3fe3a339U, 0x3e79cd113e15fd1eU, 0x3e6d019dbcb8279cU,
  0xbeceb155be89a95aU, 0xbf00cdb03efb1194U, 0x3f1f8b273dfed700U, 0xbf0200b03ea514c6U,
  0x3f4c79263e1cfa5fU, 0x3eebc7173eaa007aU, 0x3e9778cb3ec47a66U, 0xbeaa40d63cbf0090U,
  0x3e5b7db43dab9917U, 0x3e536cf2beb25131U, 0xbdc1b1d5b99888a2U, 0x3ea01066bf58b6e4U,
  0xbede1c1dbe630878U, 0xbe9ac4863ec80afbU, 0xbdc1c69d3cad3024U, 0x3e8f342e3d7a5532U,
  0x3dff64b13de7783fU, 0x3d6a63acbd8a9effU, 0xbe04d5cb3d89980dU, 0x3e6e4a92be1c849bU,
  0xbee600d9bd1d15c1U, 0xbde975a23e956cf4U, 0xbdb86ef93dca612bU, 0x3e4ea032bd25870eU,
  0xbdae85ddbc78faa7U, 0xbe82ece43e1e7021U, 0xbce62bdf3e625b70U, 0x3d5e98763e45b6d8U,
  0xbd65f0b53e39ff14U, 0x3e27590e3e97a1c6U, 0x3d88dd8b3f1e7952U, 0xbdef1ae53b23d4a0U,
  0x3d9062f83d805d81U, 0x3daedd70bea07d0bU, 0x3d94ef3fbec9f2ecU, 0x3cdc3035be876a48U,
  0xbcaa3b85bee97a53U, 0xbe8ec8e7be665f76U, 0xbe9c6b9f3dbf5a56U, 0x3df424f0bd704303U,
  0xbd7877513c8a246eU, 0xbe01cec53d245182U, 0xbda98c36be1e407aU, 0x3d9bc3473e109a2bU,
  0xbd9e1164bd0f1179U, 0xbdf78ba33db69f2eU, 0xbe3ebfe93dff3f6dU, 0xbcd8fec6bd01c0feU,
  0xbe9ed7d2bdf8d5fbU, 0xbe8374cf3df57697U, 0xbe085fe83e229595U, 0x3e29c3c73e49c97dU,
  0xbe47b26c3e14b2d5U, 0x3d98c86d3e295660U, 0x3dd4474c3f5a8632U, 0x3c931f46bd38fdf0U,
  0xbe0a3b90be4c66eaU, 0xbe5c609f3dd8c27bU, 0x3e4469cebdff1c07U, 0x3e2e0eeb3e787a80U,
  0x3ea3db633ce21a41U, 0x3d095a4dbbb62bccU, 0x3c0e2a273de18ba1U, 0xbde67787bd891fd6U,
  0xbeb58ba8be881f8eU, 0xbedad2a43dd0b73eU, 0x3e1410123d368debU, 0xbdbd12de3e9e90a7U,
  0x3e946ee73dcf1aceU, 0x3df7b535beae5496U, 0x3d1743f73edf7883U, 0xbec1632e3cfac9d0U,
  0xbe93d34ebd90bddbU, 0xbe90067f3dda92b1U, 0x3e95901c3bcc8b4fU, 0x3cd9c9a33da2acbaU,
  0x3d119e073ca87c01U, 0x3d7ee738bdf37e26U, 0xbc6ab1c43f3cafbfU, 0xbe3696eebd5a853bU,
  0xbf2e18f2bf1ab1e3U, 0xbf0fa9f6be243579U, 0x3de0bc463dce260aU, 0x3cd291973e75cee4U,
  0x3ec3a95ebd29fb9dU, 0xbde892c93eb2b63bU, 0xbd829957bea338d6U, 0xbe9379a1bd451d9eU,
  0xbf738c66bf468a8eU, 0xbf54b978be0db67bU, 0x3dd734683e47e0d1U, 0x3e8bc7283e62d451U,
  0x3ef6354d3e4019d9U, 0xbde0c16c3f66cbf2U, 0xbc942455be97c264U, 0xbe7cdb283c6e80a8U,
  0xbf24860bbf27e42dU, 0xbf380c67bd5bcee0U, 0x3e821cfb3e70c7ecU, 0x3e8e40703e4f9abdU,
  0x3f2155703e423632U, 0x3d2cf9153f8177c6U, 0xbd1a2afbbe337e23U, 0xbe13dbfdbd2f94f0U,
  0xbe5b83acbea446f8U, 0xbe3c5fcabe6fa988U, 0x3ec3d0adbd5207ceU, 0xbcb006803c80135aU,
  0x3e50652cbd8f1224U, 0xbde002fe3d8ff254U, 0xbd80f5423e51e1a4U, 0xbe918b623d8b326bU,
  0xbe7f378ebe320be2U, 0xbdf29e65be948627U, 0x3ddfa6dcbd0a27c6U, 0x3e0e596ebcb2c4a7U,
  0xbe28dd9ebe76daf1U, 0xbe8294b63f1f32d4U, 0xbe33a5eabd03f932U, 0x3da685933d51880aU,
  0xbe13ecb9be5d1936U, 0x3c4ac804be6fff61U, 0x3dabc737bdc3b19eU, 0x3eb475f4be3ca5b2U,
  0xbd32da66bea03411U, 0xbe66125c3f4df91cU, 0xbe41ca9ebd980f7aU, 0x3d6a81f5bcfbbbe6U,
  0xbf6455e3bf63b0eeU, 0xbf80af9d3e9b59bdU, 0x3f27602e3d244febU, 0xbe7bdea13f032c88U,
  0x3f7c79ff3e169562U, 0x3e31f9173f114035U, 0x3e1220663e10c484U, 0xbebed00fbd5c0223U,
  0xbf306163bf1a002fU, 0xbf3496fa3e155accU, 0x3f033f74be431028U, 0xbdc993083f20f5a0U,
  0x3f1ed8ff3d643c45U, 0x3ddff95e3ed9001eU, 0x3d0c050fbd42426cU, 0xbf16a43c3ce7617cU,
  0xbf0159a8bf052105U, 0xbf0da2b53dd12ac8U, 0x3e842483bd810efeU, 0x3d22e2c03ec26e28U,
  0x3ebadd66bd09cbd4U, 0xbc96a27d3e2ef3aeU, 0xbde28f853e06d041U, 0xbf056f2f3d8e87cfU,
  0x3e22ed473df60b0cU, 0x3e030137bf1b08d4U, 0xbe8c539dbf7d836cU, 0xbe5f5b06beff129dU,
  0xbfb0763cbf583e7cU, 0xbec6564dbf81b889U, 0xbeb0c7a2bd8b1b35U, 0x3c70837bbd47a9b0U,
  0x3dc447a43db383e4U, 0x3d364e3b3f1a35b6U, 0x3d4deb223d179b93U, 0x3c2d89953f9d0bf3U,
  0x3f3933503eb0adb9U, 0x3ec0cfb9be951d69U, 0x3e823aec3d85814aU, 0x3daaf3fcbda3ba52U,
  0x3d72c3573c504781U, 0x3dc50dbb3ea41961U, 0xbe1456333f2afce8U, 0x3eeb2b9a3f5c519bU,
  0x3e03a7973f1d40b4U, 0x3ec9e5073d4661cfU, 0x3ee3a3a93e67ec10U, 0x3ea4c78cbd680f33U,
  0x3e1693073e43e7f1U, 0x3e841196bf53128fU, 0x3d167204bf50e407U, 0xbbb03bd1bdb4233aU,
  0xbf787c22bf86f230U, 0xbec140fbbf52f2d7U, 0xbe7aee8fbc869928U, 0x3d7ed0473ce87e40U,
  0x3e3e178b3e41803bU, 0x3e2dbf163e0e5a0dU, 0x3cbc96a33f19a7b6U, 0x3ecefa6cbdd7ea98U,
  0xbec3976e3ed1ab70U, 0x3d6d6fa23facb3bfU, 0x3e38837abbc1daedU, 0x3e7551afbd30db1bU,
  0x3e577e253dede8e7U, 0x3e3d5f3dbf833780U, 0xbcf5e4373db2a02cU, 0x3f018373bfb64123U,
  0xbfc43d79beed6e38U, 0xbe8dec903f512299U, 0xbbedd5d53e974b33U, 0x3e7ebe103d84d9b5U,
  0x3d79c5ea3d8fa7bcU, 0x3dda839cbe902799U, 0x3d926895bef945d3U, 0xbca2780fbeab56d8U,
  0x3df40c83befe7855U, 0xbe236e63bfa0ce7fU, 0xbe14f5a2bdb6a0a7U, 0x3c0899c23d9630b5U,
  0x3e1c41633db616c9U, 0x3e47c124be90400bU, 0x3e8532f7bf2c7f91U, 0x3e2f7192be9133e1U,
  0x3f19d705bf4844bcU, 0xbe3157e13f0b1a44U, 0xbe0f0c16bd840236U, 0x3e54eb8f3d501c26U,
  0x3e0d8a153e05880aU, 0x3e79e0a1bed86059U, 0x3ebdef50bfb7adf0U, 0x3d37ca3abe7554d8U,
  0x3f298724bf978876U, 0xbe182643bf757a4eU, 0xbea0164b3c680e48U, 0x3e142fdc3d7c14beU,
  0x3e4160ba3e244015U, 0x3e4a0d0ebf088243U, 0x3c88e899bfa364b9U, 0xbceabef7beecde08U,
  0xbe881d3cbfa86a7fU, 0xbebdfb10bd4dfc6cU, 0xbeb5f5d3bdddad18U, 0x3d52ed04bd8aacb4U,
  0x3dce9cf23d96100aU, 0x3d4db261be3aa148U, 0x3e5e18153db87194U, 0x3e597131bea8921fU,
  0x3f27409ebef45c85U, 0xbdc569ee3fb2e343U, 0xbd957811bd3d75f3U, 0x3d4eea4ebd810f44U,
  0x3dcc6bd93ce8eed0U, 0x3e538a48bef571a5U, 0x3d549431bc5444acU, 0x3e9915a2bf375303U,
  0xbefb6bf4bf0480c9U, 0xbe51fb413fce0e81U, 0xbe0d0eabbdf2c019U, 0x3e3ba716bd7876f6U,
  0x3d0105f73daf783bU, 0x3ddc193a3e0e1429U, 0xbb947353beb6754eU, 0xba007b433e653b6fU,
  0x3e55ea46be5c3bdfU, 0xbcf72d0ebf090589U, 0xbe15d01ebe412ce4U, 0x3d4561dcbd91c100U,
  0x3d81bd66bdbcc01bU, 0xbc59c6bd3e042ebeU, 0x3e95cd2e3e690714U, 0xbe274a873e1c9b66U,
  0x3f1c76383e4a8403U, 0x3e4b6914bf783ae9U, 0x3e094aa9be706be1U, 0xbc7efb1a3d8bcfadU,
  0x3e1a1825bd0a1b2dU, 0x3db2c9d03e1acfacU, 0x3e9d6c6dbe8551eeU, 0xbe40e3d4bdf714aaU,
  0x3efd75533c9ff31bU, 0x3e4663b7bf4a35fbU, 0x3df4823fbed27145U, 0x3d8d0f1a3d3b155aU,
  0x3dff2d9f3d1b5d77U, 0x3d0c0c3fbdcfdce3U, 0xbe99b4233da41dc9U, 0xbe899714bebcfd0aU,
  0xbe77bc803cdf56a5U, 0x3b7bcad3beaf8719U, 0x3c6f7cc7be20d8aaU, 0x3bde61153c885244U,
  0xbd965d7dbc714ef4U, 0xbb487bab3cc68b71U, 0xbde1b4963e30a887U, 0xbe8525e8becdbed6U,
  0x3c2517f93d0aca1eU, 0x3d9b0836bdafbab1U, 0x3d5b6e1ebf03d6e9U, 0x3d8c43ba3d60866aU,
  0x3e03d6c33d69ef9dU, 0x3d2ede553e697793U, 0x3d6f48353e7be71cU, 0xbe55ad02bdeec76dU,
  0x3ed035453ea7d6f9U, 0x3e444bfdbdfedff1U, 0x3ea4224cbf41bbd1U, 0x3e73a05a3d73e3eaU,
  0xbdcd283abd9ac839U, 0xbe4432ba3e3d439eU, 0x3ea957933eafd831U, 0x3e8390103eefac94U,
  0x3edcdfdd3e4b0436U, 0x3e4412d13f57d7c9U, 0x3da932ee3e8f9c49U, 0xbd8311ffbcc81b26U,
  0xbdf5e023bd83a7f0U, 0xbd32c1c6be0050fdU, 0x3ec05d183c89c4b4U, 0x3ea6a6973decaef5U,
  0x3e2b8d08bd8f61e4U, 0xbbb957613f466defU, 0xbd8b351b3e77e777U, 0x3c053bb23d68dc4eU,
  0x3d212d81bcdafdb2U, 0xbd309c1abd8dceedU, 0x3ebe2ae43d979d47U, 0x3e8bd3bc3e51cf1eU,
  0x3e3cb608bd84072eU, 0xbd613f4a3f5c1b6fU, 0x3c7f54143e9b7129U, 0x3e4b94dc3d0c61e0U,
  0xbd3a9a923bc58a54U, 0xbc99aed3be033a90U, 0xbb50cec83deb63deU, 0x3edb889abe07af76U,
  0xbe87aef5bc8a31ecU, 0xbcc615313f33e7d5U, 0xbd714e6d3e1d039dU, 0x3dff3cf03c228798U,
  0x3d0563fd3d956586U, 0xbd571032be2cf010U, 0x3e6df1cfbe4571d1U, 0x3e514af93b1e45a3U,
  0x3ec3ffa4bd8b5383U, 0xbb2a180e3ec7d017U, 0xbdf91403bc60a445U, 0x3e0b46debcc8c150U,
  0xbde0d78fbd37024bU, 0xbdca9ed5bc2e20dbU, 0x3f0867813d0b4559U, 0x3bb97be63ed783c9U,
  0x3f2b3e293e019453U, 0x3dcada4e3e7bfcb8U, 0x3c5f75433e092b1fU, 0xbc52ff593d61fa7aU,
  0x3dd7b7483e717db9U, 0x3e340b1dbeae093eU, 0x3e85f9e2bea38c44U, 0x3e7385923e0464d0U,
  0x3db056b8beb1f8feU, 0xbea12a4d3dbada6cU, 0xbe8f8f6c3e4e2666U, 0x3d91c943bac4f400U,
  0xba8fb5923d4aa116U, 0x3e2e4a74bd1bf504U, 0x3e82d321bdf8e03aU, 0x3de44c9a3ed9f24fU,
  0x3e1a35c13cee8956U, 0xbdc3d81e3d9410d7U, 0xbda0d76f3dda58daU, 0x3d928dd8bc1a66f8U,
  0x3cad2965bd2f839fU, 0x3dcde72a3db5460aU, 0x3ddce1313e89facbU, 0x3ea6e84c3e5720d3U,
  0x3e1a1a4d3dea09e2U, 0x3c5dbaad3f0171cdU, 0x3b3fa6263ee4f7deU, 0x3dccf1203d52c302U,
  0xbf5a5f48bf23ccc8U, 0xbf4e9d9a3e37f6a7U, 0x3e6ea5d63de6f48aU, 0x3d993da53e6f53b4U,
  0x3ec2db993dfe3c91U, 0x3e2f2cf83f350477U, 0x3e4294633d07e242U, 0xbe933f943d13c406U,
  0xbf4e4a25bf2a18eaU, 0xbf5320ab3e06b101U, 0x3ec833dbbc273c3bU, 0xbcbf333d3e863dafU,
  0x3f10c49d3d57f82dU, 0x3d72bdc63f299407U, 0x3c8c2df5bdd093f0U, 0xbe1438bcbbfabff0U,
  0xbf426a82bf47a23aU, 0xbf67e9533dd9aa80U, 0x3e80ac893c9824beU, 0x3c9d74713ea0d762U,
  0x3f16338b3daade69U, 0x3e1ac4b23f223fe6U, 0x3dc685c63e0abb20U, 0xbe30be5f3d5dc8eeU,
  0xbe95ea5dbe352e96U, 0xbdf2c7b2be1c1555U, 0x3daf8b413e4c3896U, 0x3e8a3dd5be25382bU,
  0x3da8aa673c8d6e67U, 0xbde5ee5d3f373d6eU, 0x3cf58ced3ba1f467U, 0xbe024b9fbc805d3cU,
  0xbe1994ffbcb68487U, 0xbda6dc14be8136f3U, 0x3e49359d3d8f2f3aU, 0x3e5ce808bea09b36U,
  0x3e064119bd59dbdbU, 0xbddca6853f6a2251U, 0x3b5cf679bed0eca9U, 0x3cdd7425bcd87b7cU,
  0xbe53ac5bbe242a92U, 0xbe84ad78bc9c90f6U, 0x3ee1b3443e286b87U, 0x3d5d30b8be3dc066U,
  0x3efebef33dab5a35U, 0xbdeb349c3f2c3a47U, 0xbbe78416bdbc2812U, 0xbda04a2bbc47c5e8U,
  0x3db5ea413de42b8eU, 0x3deeb2703db0c600U, 0x3f4251d1be27adfdU, 0xbda632123df94919U,
  0x3f55b355be4122bfU, 0x3d963f2d3df7d723U, 0xbcce40083e0326dcU, 0xbdb2c895bca0d20cU,
  0x3d122bfd3d2430d2U, 0x3db9204d3ccb15b3U, 0x3f037473bea6182fU, 0xbe477bc43e96050cU,
  0x3f08306fbdc1d25fU, 0xbd2546eebda759c2U, 0x3cdfa36c3c9b7a2bU, 0xbd31d1de3d9de771U,
  0x3e1e9c693e0d91c6U, 0x3d0111993d7c1bb8U, 0x3da38a17bd6ee508U, 0x3da60e873d4217c5U,
  0x3e2436aebc476199U, 0x3d7437ea3ed96ab5U, 0x3c57c8863dc5e68bU, 0x3cfeb2acbc946200U,
  0x3e88b6f03e9d092dU, 0x3e92c861bee20127U, 0x3e9d6275be409602U, 0x3ed1f31ebf3cc217U,
  0xbe0a518fbe9e2e63U, 0xbe1072043f82f479U, 0xbdfe3337bd8cfe55U, 0x3ed67becbd1bd3d6U,
  0x3e29a5e93dd45b82U, 0x3e5a847dbe3ee1e2U, 0x3df177033e00b83dU, 0x3e6e1989bf0594ddU,
  0xbf21aedabdabecd5U, 0xbdb9d94e3f3ec40bU, 0xbce68447bd642542U, 0x3daa7e693d0da646U,
  0x3e232d5a3e4a1aceU, 0x3e35af6abf1f22ffU, 0x3e11ed33be5a7392U, 0x3e0d2372bf167104U,
  0xbf84f575bed13688U, 0xbe0f56323e43ecb2U, 0x3d0fb9123e468f37U, 0x3e36e9823da7140fU,
  0x3e83c59b3e95f5c4U, 0x3eab6a423e27a1f8U, 0x3ec4ee21be695295U, 0xbbe5c72c3db422efU,
  0x3ef744f93d8c30ffU, 0x3e45cb25bf7fbc33U, 0x3d8c89673d8b9bf2U, 0x3e95b4e93da5e327U,
  0x3db59e073e2ac08cU, 0x3e2d1b983e05ef99U, 0x3e20cb4ebe84a5bfU, 0x3da60f3a3d7eaa36U,
  0x3eaa01dbbd727943U, 0x3db9fb1bbea35bc1U, 0x3d47b0573b8da025U, 0x3e196eb6bd80320fU,
  0x3e2f55bd3e595af2U, 0x3e35de8fbeb3658fU, 0x3e2014a2bee61f3bU, 0x3e1ca236be9f2741U,
  0x3da203e4bed88cd1U, 0x3ba48d4ebe92f437U, 0xbd9719173e804d55U, 0x3e89e678bd93e553U,
  0x3d565d8e3d61b62cU, 0x3e4772813cebac50U, 0xbbff6cb43e59b5f9U, 0xbe0ac8d3be8cfbfcU,
  0xbb41f8603e5db59eU, 0x3e184987be79fba1U, 0x3e52ab04bc5b91b5U, 0x3b912fe9bd870834U,
  0xbc0476ecbdd9935cU, 0xbdd199e83d0a1cdbU, 0xbdbef2b23e259f43U, 0xbebd80cabe68f5e2U,
  0x3e1d6b493e2845fdU, 0x3d78073abe3cbd05U, 0x3e013a62bdb96d07U, 0xbd94659d3da8eaa9U,
  0x3e101d003d97fff5U, 0x3da4490fbe46d253U, 0x3c35abd8be119438U, 0xbe650d84be8ff314U,
  0x3dd34f67be2e5919U, 0xbc21de71bef29578U, 0xbdba9e913c171323U, 0x3d775634bd67e5c3U,
  0x3dda876f3e359d18U, 0x3e4a46293eafd80cU, 0xbeadc04f3e4e0965U, 0xbec447ce3e7aa1e7U,
  0xbe2166633e26dc65U, 0x3e72df2bbfa9948eU, 0x3df137023d0abc98U, 0xbe928a89bae29cc0U,
  0xbc630ff6be07068eU, 0xbdade6f33de0aae4U, 0x3d412baf3e5b7863U, 0xbe9f3370bb045818U,
  0x3df9ec003df1851eU, 0x3e6b6e8bbf9cb6d0U, 0x3e9441b73ea4c4b1U, 0xbe8859a3bd4a0580U,
  0x3e641d453e44db3dU, 0x3e31ab3dbf5af5a2U, 0x3e41d4d2bf292e51U, 0xbdf734a8bf9f9546U,
  0xbf113f95bf3d2cbcU, 0xbe8270c5bfc5d376U, 0xbde684703eb906e9U, 0xbda4c77b3d180458U,
  0x3e45ecf93e52133dU, 0x3e3d38343eb48730U, 0xbf02d3703e836b31U, 0xbe83a1983e9e214aU,
  0xbef0934e3e8367b0U, 0x3e7d3e07bf90613cU, 0x3e6662b03d8ebf39U, 0xbec6882f3c9df0bcU,
  0xbe109503bdc17643U, 0xbdc42d953dc07a8aU, 0xbe7f36f73ea76bc1U, 0xbcdef14ebdf461d2U,
  0xbec34f8f3df00d7cU, 0x3d8007eabf2df113U, 0x3e026fff3e61cfebU, 0xbe5248f0bd490650U,
  0x3db7410cbcd5dde9U, 0x3e264fb6bee49774U, 0x3d1faee6bebb7e39U, 0xbd625743bf339f55U,
  0xbf0cbed1bf05e947U, 0xbdaeb09dbf8d4e3aU, 0xbdeaf79c3daeedc1U, 0xbdcc1d833da87b4dU,
  0x3e4412e93e07204cU, 0x3e4dfeb13f084727U, 0x3b3d858e3e8b3980U, 0xbec9e3413ec9b861U,
  0x3dd950b23ef4560fU, 0x3e9ab00cbf8fbfd0U, 0x3e8ea2243e83d0c8U, 0xbf099a473ad97700U,
  0x3c779146bcd5af9eU, 0x3d0503e9bcddf66dU, 0x3b6048793dc2cb7bU, 0xbe1aeb29bdc40d04U,
  0xbea779f63d0d6c3eU, 0x3cb3d410bf8c0a0aU, 0x3dbdf52c3e3dfcf6U, 0xbe2d22603d8623dbU,
  0x3dd703243e2d8313U, 0x3e6792a0be8d3a30U, 0x3c6b7c9dbf005dbdU, 0x3d386e96be9336ffU,
  0xbed6407fbeebf343U, 0xbe26009ebf548db2U, 0xbd5a80dcbe1f5fdfU, 0x3d895dd4bc62db80U,
  0xbdbaa110bd83145cU, 0xbe4a6eac3dbaafaeU, 0x3e8d62b53da1bb61U, 0x3d9dfb013dae3182U,
  0x3edb477e3d9b6655U, 0x3c8f36913f1b1ed9U, 0x3e063117bd93d634U, 0x3d2ab29abd3bead0U,
  0xbe592bacbe25fb1cU, 0xbe975dfa3c23d474U, 0x3f0ecf2bbd96bd0fU, 0xbda439923e8d1d6eU,
  0x3f286c46bc52e888U, 0xbbbf3ba93e64c72cU, 0x3ae7dab23e40cf72U, 0xbe541a26bd059283U,
  0xbd0d2f19bd583e84U, 0xbe288c69bdc65a5aU, 0x3f2a4372be8b3679U, 0xbd2f4e9f3e98bf5aU,
  0x3f0f6ed5be6f1e58U, 0x3c0d558dbc9ac318U, 0xbdbb8dc13e8f4e4aU, 0xbdcd2f9fbc6eb880U,
  0xbbeb1b58bd16067fU, 0xbd322fa9bdcfef69U, 0x3d81df35bd05ca00U, 0x3d983d27bc982ad8U,
  0x3db996853d3e932fU, 0xbdd43fa33f40bcb3U, 0xbd5b92bfbe46e770U, 0x3dbe5fb8bc9924ccU,
  0xbe851c09be040bd2U, 0xbe5e7dd4bcdab306U, 0x3ea1e2973e135cacU, 0x3d27a6513d179a3dU,
  0x3eba92d53e3ce84aU, 0x3dd2349b3f4274eaU, 0x3e419012be142079U, 0x3dbf09f03cde61ecU,
  0xbe6cf34ebe48aee6U, 0xbeafd0e43dda2a63U, 0x3f0995de3d61a194U, 0x3da048133e0a3750U,
  0x3f2fd95f3e4e29c0U, 0x3d8d52e93f1a3461U, 0x3e0b08733e094cdeU, 0xbc89e8f9bd860f1eU,
  0x3dbd27db3d753c89U, 0x3e3e2d76bea15bbbU, 0x3ed3423abe61510eU, 0x3d74ae7c3cf6ec43U,
  0x3ec7c7e8be62aa5fU, 0xbdd2fb323e875ce7U, 0xbda76f5c3d98e4b7U, 0x3db229503d97ae45U,
  0xbba05d3abcab60a5U, 0x3d9e45a5be3bc1ecU, 0x3e9246c5bc3faf26U, 0x3e261517bd9248c4U,
  0x3b7d9ac0be5d14ebU, 0xbe5c0e4c3f037118U, 0xbd793fef3d43818eU, 0x3dc16e3e3ba6d490U,
  0xbdf688903aa649dcU, 0xbd9187c5bd7dfa02U, 0x3ed9e7523de9a493U, 0x3e885d0f3d85056fU,
  0x3eba4fcf3d56bb4fU, 0x3d007fe03f2e974aU, 0xbc4af0d53e102dcaU, 0x3dffad40bd479276U,
  0xbcdad4c8bd2dff08U, 0xbe1458f9bd90803fU, 0x3e6d1b04bd9fc7c0U, 0x3ea4ede23e159f3aU,
  0x3de59c17bd6686cfU, 0xbd1713f43eeb54b6U, 0xbcf4f3823e740f99U, 0x3d40ddf33d013586U,
  0xbe270aadbd88d606U, 0xbdd2eb0c3c200726U, 0x3e5dddb2be058b0eU, 0x3e4389c33ecc093aU,
  0x3e0ab27dbd88e1d1U, 0xbd9ae9873e4475d7U, 0x3c9943743e95e36bU, 0xbd89ddc6bd50daa8U,
  0x3d647c69bd944a7cU, 0xbd9ae57b3dc7e8f0U, 0x3e419200be04b4b9U, 0xbc0402ec3eaddb40U,
  0x3de45054bb0a3d91U, 0xbdb854a1be0f2e32U, 0xbd3604b83e8884e2U, 0xbd0405b03cd214acU,
  0xbd58430d3d8307dcU, 0xbc8bd8b9bb91be7cU, 0x3d17ba5ebd52ce53U, 0x3e7a45af3e8e854cU,
  0xbd0cccdbbdc57fe1U, 0xbde8e8b63eee09a1U, 0xbe2e88413e8e53dcU, 0xbc830ad1bce4cb00U,
  0xbdc3328abde26f55U, 0xbe3f26893dc54a72U, 0xbc9f3f1c3e184716U, 0x3e9bc4fe3e64341eU,
  0xbd9a7bcd3d869083U, 0x3cbcc5363e4c8ca1U, 0xbdc972cd3ea4b109U, 0xbe2656953d9b48c7U,
  0x3cb9e7d23ba786e4U, 0x3d4f0eefbd208f32U, 0xbdbe4a97bca539a3U, 0x3e2e2a64bd3c27a4U,
  0xbe63ab7dbc5e2440U, 0xbdcf03ef3e46df20U, 0x3c9da0c63e995292U, 0x3c60d78cbb7d7e60U,
  0xbe7c0590be308396U, 0xbea7ec793d077b69U, 0x3e8afe41bc78f295U, 0x3b6656d93f0bbb08U,
  0x3e565ebd3dafd4e1U, 0x3d77c277bdd738d1U, 0x3ca9a63d3ecc8881U, 0xbe740d5e3cef6700U,
  0xbe43ac71bdfa8327U, 0xbe76d1e53d5172a8U, 0x3dccd7d2bd388545U, 0x3e6451c43e779ceaU,
  0x3d20750b3b840fb2U, 0xbd99abc33e1aa1d8U, 0x3cc759223ea37930U, 0xbe3d9d7f3d958853U,
  0xbde5ff02bca591dbU, 0xbdf1b2c13d0f8e04U, 0x3d22a941be07edb9U, 0x3dcdfcef3d8192d8U,
  0x3cd3fd8abd1a0ae3U, 0xbd048d873db99083U, 0xbc22958f3d9e34c6U, 0xbc32ea263d27c1d2U,
  0xbee58c0dbf10db0aU, 0xbee8c023bd80ad36U, 0x3ec6906e3d459b80U, 0x3dc45a5e3ed9b144U,
  0x3edc1c573e2bc4baU, 0x3d4646303f21c02fU, 0x3d481393bc1300abU, 0xbe3acd523d85553bU,
  0xbec72b12bef90347U, 0xbf017ab8bd9c8721U, 0x3e11c700bc5e4027U, 0x3e1a67073b8182d6U,
  0x3dc41b0b3d14c133U, 0xbd9770743f41e4cdU, 0x3c89e0cd3d5a8b6eU, 0xbde2e0fe3da21e3dU,
  0xbe4f7220be43b2d8U, 0xbe8de1a0be67cc1eU, 0x3e6cb56abdb6ac0dU, 0x3ebc4ed5bde6301fU,
  0x3de59efbbe6ba487U, 0xbe88c7553f7da631U, 0xbe60d4803e9e94a9U, 0xbd17dc4e3c81133cU,
  0xbe903497be689822U, 0xbe5611febe6985feU, 0xbe792bc73d92fed5U, 0x3eff3ca4be267afbU,
  0xbe1bf28bbd89ec68U, 0xbe16286c3f6c3771U, 0xbd959ead3c84c81fU, 0x3e57a37d3da67d43U,
  0xbed511fabebfec66U, 0xbed34f5dbcb1b949U, 0x3e4e021bbe6a6c15U, 0x3e9f69ee3ce2797cU,
  0x3ea24dbcbdca6401U, 0xbe1e4d9e3f590b8fU, 0xbd965403bdd53c37U, 0xbdcb68543d191c2aU,
  0xbf036032becf3001U, 0xbecf01643d949f51U, 0x3ea9e6f3bddc04adU, 0xbe788c8f3ed52364U,
  0x3ec79e743dd82923U, 0x3d210b94be72ea31U, 0x3c1e9bd53da21440U, 0xbeec8975bd9fc74fU,
  0xbed4ad29be9f888fU, 0xbeb1550bbbe585ddU, 0x3ef010b4be56db28U, 0xbea0c0fc3f222cb8U,
  0x3efc27c3bd87c6d2U, 0xbcdf00e0bd991513U, 0xbd7648b1bcba9addU, 0xbe82b235bcbfd816U,
  0xbf14c5cbbf011709U, 0xbeebee2a3bf0507eU, 0x3dd426bd3d5d2c86U, 0x3e9731fe3eb61683U,
  0x3e90f7fe3e0564b5U, 0xbd775bf33f086eb0U, 0xbd1bc6993e84752aU, 0xbdcfa26bbd36099bU,
  0xbf113e1dbf0bd4b9U, 0xbf0400e83c0c0c9cU, 0xbe0c1e093dfedcd7U, 0x3ebca3e93dca5a56U,
  0x3cce99453ca299a0U, 0x3ca8ffc63f5b386bU, 0x3cb475b43e3b2316U, 0xbcba3fe9bbd15310U,
  0xbe41bbf6be1ab916U, 0xbe8f2ab93db5ef94U, 0x3e4e1e7cbd921f8dU, 0x3cd44eae3ef8268dU,
  0x3e80be533dcd2b4bU, 0x3e20dbbe3ebe5c42U, 0x3c80895f3ce82f3fU, 0xbd4a5a65bd88cd5fU,
  0xbebd99abbe9b63d9U, 0xbefde37e3dfbdef6U, 0x3ef73ced3da623feU, 0xbd7a1b5e3e89a118U,
  0x3ec107263e5d5055U, 0x3e1dbf82bd96af08U, 0x3e02f0b03ed4423fU, 0xbe75712e3c5ec498U,
  0xbeb7cfbebe61abc0U, 0xbec8566c3d889f8dU, 0x3eecfbc1bc1a0714U, 0x3e9ae6033e2361fcU,
  0x3e42cef03cfb2b5fU, 0x3d5a1d673e642d02U, 0x3d9dd1cc3ec6d76aU, 0x3e02018a3d0f1486U,
  0xbddf4b583b947a9bU, 0xbd566030be440e95U, 0x3df5690c3dd41b35U, 0x3e58baed3d0792c3U,
  0xbd691e023c4dddcfU, 0xbe2f01df3f2e5988U, 0xbe085d3d3d9f30bdU, 0x3d9ddb67bd9ae570U,
  0xbe6ed364be258489U, 0xbe914787be2a0edfU, 0x3ea3ba2a3d3f6b03U, 0x3e5ac4ebbe181e48U,
  0x3e3c8ba63db8a405U, 0xbd79df083f240019U, 0x3b4771073cbf82e8U, 0x3df7eb2a3be96d50U,
  0xbe8c0589be472565U, 0xbead01ebbd9216f2U, 0x3f43ee3a3dad8c18U, 0x3de2a9efbe02738fU,
  0x3f1cb665bd92dc9eU, 0xbddce1783f2b258cU, 0x3c9393ca3e7ac3e9U, 0xbdde6aef3d0e1918U,
  0x3d7a5b083e10e9cbU, 0x3da91921beb16f05U, 0x3ebaa350be9e1552U, 0x3dcd061bbe8990b2U,
  0x3d87a7ebbea61baeU, 0xbe8108fa3e5b8439U, 0xbe89b54d3de1b2dbU, 0x3e0a4994bd3c054bU,
  0xbcd9ba8c3e036d97U, 0x3d06fb7abd7dd3a0U, 0x3eaac0e4be6a0083U, 0xbb3049183e28c72cU,
  0x3e38df53bd891755U, 0xbd81c4ce3e9ab447U, 0xbe1b21d83d072d01U, 0x3dd9fda53d949143U,
  0xbebcc61ebe1cdcb2U, 0xbe8d306a3e7a711cU, 0x3ef991b5bbfc26eaU, 0x3d2aca6e3ea68d5fU,
  0x3f2364313e600a11U, 0x3dca72443eddb105U, 0x3e232f153d950674U, 0xbe1a0142bd916f37U,
  0xbcd9be33bd63eb2fU, 0x3d8248b53d63c717U, 0x3cc67722bd91a72dU, 0xbd222c153c6866c9U,
  0xbc9bdedd3cd4e7adU, 0xbd9dbba73d08f2faU, 0x3d9321aabd187edaU, 0xbd8de8b9bd0184abU,
  0xbcc7508b3d63f2f6U, 0xbda6f4d33d1e5fcaU, 0xbc6bf2d4bd78aef8U, 0xbddcd5a7bdc3295eU,
  0xbccb883fbd77bb3bU, 0xbda6291f3bb94b38U, 0xbd7179b93d0fc765U, 0x3cc8aaa43c53fd40U,
  0xbda7fe453ca33725U, 0x3cb3c0953d2453ddU, 0x3cbce489bdc1cd01U, 0x3d0d96d23d038b63U,
  0xbdd1dd3e3cbc1c74U, 0xbdbe90bbbdc17c44U, 0xbd86a9f43cbf2710U, 0xbd2289a0bc4d7700U,
  0xbd58b624bd981a0dU, 0x3d0aa0333ce25fb5U, 0x3c550aa7bdc5932cU, 0xbd8583d9bac9a66fU,
  0x3c9d9ebfbd22fecfU, 0xbdc543583ce34b1dU, 0x3c6b8c5e3cee2c42U, 0xbd373ef6bc879664U,
  0xbbc8827dbd7c9b91U, 0xbd90f42e3cae26b2U, 0xbd9e3af1bbf95957U, 0x3cec0cb93c8c660eU,
  0xbd998286bd3e577fU, 0x3bec8005bd3ce92fU, 0x3d66e763bbb11ee1U, 0xbd978daebd1d27f6U,
  0xbddd1a893d49bd3eU, 0x3d027e94bd4f64beU, 0xbdc2051d3d5a349bU, 0xbdea83e3bd837b71U,
  0x3d5a88f63c2bc9b5U, 0xbd99b865bd4ee6cfU, 0x3c6f7b183d457a77U, 0xbc000b83bd5aa9f8U,
  0xbd8e9c61bd0a550dU, 0x3d898e183a874e77U, 0xbd8195f2bd8b9352U, 0x3bf438b83da29087U,
  0xbbcff5913c0ce47cU, 0x3ca5e2e93c42a936U, 0x3d077e54bc8c1077U, 0xbcb2a1903d43e4a2U,
  0xbdbe83a0bd5f4e1bU, 0xbd09faba3d11b73dU, 0xbd704fd53cf20201U, 0x3d7bea7f3be4d966U,
  0xbd323580bd2770c5U, 0xbd94f52cbc9b6f14U, 0x3d158e3bbc34f89fU, 0xbc0d772abc6bd120U,
  0x3c5aec94bd710692U, 0xbcd9f23bbd6445ddU, 0x3c5d49ecbd12b991U, 0xbcd43ac2bcf6910aU,
  0x3d4f1098bc8db208U, 0xbcae982dbc028de8U, 0xbcdec881bda24b72U, 0xbd5623053d93e801U,
  0x3e38435c3c9a5c56U, 0x3e2e3ea53d350529U, 0x3ea0da69bf02fd37U, 0xbe318b263e5ba4efU,
  0x3eff6090be826ee8U, 0xbc383b95bf5c57a2U, 0xbcb77bfbbe0a4912U, 0x3dd6915a3c3259b8U,
  0x3db8535d3b4041e2U, 0x3b94c0aebd57b55bU, 0x3e94cb3cbf219c3dU, 0xbe820a883dd5b6f3U,
  0x3f50e1b3becc3a3bU, 0xbd346f62bf5a1684U, 0x3d4f48113c25c78eU, 0xbc616d93ba3cfe80U,
  0x3e25afe13d92bb60U, 0x3d8f41eebedd1d26U, 0x3e42e412bf9af31fU, 0xbe0f2b84bed45b34U,
  0x3e6c6855bf53f236U, 0xbe95d281bfec7a05U, 0xbe6a94fc3da99418U, 0x3d80a63d3d5e4206U,
  0xbd9d327ebdff83bbU, 0xbdb9a3323ebb2d38U, 0x3ca0d7a53ea573a5U, 0x3e3ad5fc3f352161U,
  0x3ed686823e805989U, 0x3ea0f1ee3ec47fd3U, 0x3e89bde7bc93b7a8U, 0xbd4246653d1c523eU,
  0xbd577439bd80d576U, 0xbcbcfc5c3eb2faf7U, 0x3def73e83edc0273U, 0x3debdcba3eb9aed2U,
  0x3ef7f0e23ee2c1baU, 0x3e436bd73e8bf295U, 0x3e8cb75c3d9eed46U, 0xbdccad6f3d831785U,
  0xbd7a95d4bd89d07bU, 0xbdd040dabe4eeec0U, 0xbd886bf4bd00c130U, 0xbd8a0d65be382e7fU,
  0x3cc9f5c7be304659U, 0xbd3dd39ebef89cb0U, 0xbd322f24bd48a77fU, 0xbe3edaaebcbd6866U,
  0x3e5a2f7a3dece7e0U, 0x3de4a8edbeff1106U, 0xbdc8fac63dc7b47dU, 0x3ed6e866bf843b85U,
  0xbf53860abe4364afU, 0xbdf0bc763f569838U, 0x3d9f46f33dfffa0fU, 0x3e87e581bd91e207U,
  0x3e3ddf973e163049U, 0x3e4d9c61bf561c14U, 0xbdda8a273dc89f20U, 0x3e9ebf94bfd992d6U,
  0xc0043b8abe9d63a7U, 0xbe86de833f69973bU, 0x3c6d42383cf09bf5U, 0x3e5dca573b81b990U,
  0x3e09146b3d929336U, 0x3e224008bf529646U, 0xbe146da3becda4cbU, 0x3e735f2ebf755d33U,
  0xbfc9bbe8bef7e4bfU, 0xbea045bfbdd9968cU, 0xbdfe19d73dd5a778U, 0x3e13ede6bd3f3186U,
  0x3e91e2dc3e5f60baU, 0x3ec487b9bf17685eU, 0x3ea1f813bfaf1409U, 0xbe0677b0be8c622fU,
  0xbd88d595bfab4418U, 0xbf056c9abe9311ceU, 0xbf269787be82a67aU, 0x3ea650203da20cabU,
  0x3e02cf3c3e21fe04U, 0x3e5a98a4bd9c0fc3U, 0x3d1a42e5be2abd47U, 0x3dbd7decbd85dacfU,
  0xbec87242bea668dcU, 0xbe6227703f85b029U, 0xbe22e3e6bd0ef170U, 0x3e80a7623d92f929U,
  0x3dbce5323d8dd504U, 0xbbbf7f1fbd9abbd0U, 0xbe87f3093ec9b6edU, 0x3e88bc20be96810bU,
  0xbf7e99243e81f8ccU, 0x3c776e3d3f7f77eaU, 0x3da281d43dbd7b67U, 0x3e95c80c3d7362c6U,
  0xbd001755bc7c0187U, 0xbd7b90643d0fc362U, 0x3e3fad83be32b773U, 0xbe3f3c193e3c05abU,
  0x3ea4b60bbd03ea82U, 0x3a1de01cbf00b9e8U, 0xbdb8e50bbe8de8f6U, 0xbe109218bd700360U,
  0xbe1a018dbdca5e4aU, 0xbd2911c6bda3704cU, 0x3e3a888fbd21b4b4U, 0xbe5d19b5bd571dc0U,
  0x3e15fcfcbdd3cd28U, 0x3c0630efbf694dedU, 0x3ca258e5be3fbbf2U, 0xbe0d3c20bd02e393U,
  0x3a5c84d5bc85a6c0U, 0x3d85e943be2a38e3U, 0x3d627603be981c70U, 0xbe550b73bec95523U,
  0x3ccf5462beb4c6a6U, 0xbe4afdcebf4187a2U, 0xbe8c4c80be9c41aaU, 0xbd3f447ebcc8c746U,
  0x3c0460a83df66db7U, 0xbd71acd13e6f9c86U, 0x3d7e47893e338402U, 0xbf0108fd3dede9f6U,
  0x3ea0a22f3e023789U, 0x3e6d7cf33bad0868U, 0x3e779a54be335a10U, 0xbc9c6013bd0ab780U,
  0x3cdc1dcb3e04876aU, 0xbcdc7dd63e3804e6U, 0x3e95791b3dca002eU, 0xbec22d583dc8a854U,
  0x3eb206003e523bf1U, 0x3e8088cbbdd84a11U, 0x3e476cb1bead202cU, 0xbe154ba13d9f4ea9U,
  0xbd9a6b7d3df64d62U, 0xbd5557663ec06efeU, 0x3f0233b7bcc704d2U, 0xbeb87f553e8a1996U,
  0x3f50f8c83e2bd1dfU, 0x3ec077373d8d46d5U, 0x3e4159b8bf0276deU, 0x3d9f54133da8118fU,
  0xbe497cb4bde44da9U, 0xbe154f783e182fb9U, 0x3e212e903d9637f6U, 0x3dca6d2a3ebfb6a2U,
  0x3e288e463c59c5b1U, 0xbd0de61a3ebc7a16U, 0xbdceda833dfad467U, 0xbd56c86f3d15c7c2U,
  0xbe873499be7e26b0U, 0xbe9cc3d63e2a4b26U, 0x3e3818b63eb7b56cU, 0x3e2699f23ec8a48bU,
  0x3e9580683e9df734U, 0x3e449b043ed4b8f3U, 0x3e7023493f05b085U, 0xbe3419fa3d5f31feU,
  0xbe903985bd5ee608U, 0xbdd563ab3b05f91aU, 0x3d2e44cc3edf3944U, 0x3ee76c793e061728U,
  0xbd0009323e521db3U, 0x3cfaba263f6812b4U, 0xbc05d3643ebc4154U, 0xbd8079e0bd994602U,
  0xbe93586cbe5bf385U, 0xbea780e43e577660U, 0xbe4fff353d826c48U, 0x3e8a19353eb016faU,
  0xbe253c163de20e2eU, 0x3e0b28463e58f042U, 0x3c856ab53e58d7d7U, 0xbdec773fbbe61b10U,
  0xbec1c601be91eb55U, 0xbec784d33df2a681U, 0x3e00d3dd3e845dedU, 0x3e2312f83e9033d4U,
  0x3e5cc4e33e8b25beU, 0x3e63b18c3e805697U, 0x3e58fca73f0666b2U, 0xbe8a508b3d905b49U,
  0xbe8147dfbe66c0f9U, 0xbead2b0c3dd93bd8U, 0x3e35a5ff3d353069U, 0x3e12ee613ea164b5U,
  0x3e4448cd3c7aea1bU, 0xbbf8c0223e402cbaU, 0x3c426ea03dee5098U, 0xbcfc52573d6a59b2U,
  0xbdfed0503bb5dcadU, 0xbe2c9f8a3e37eea3U, 0xbcb35effbb9e3f39U, 0xbe1b31de3ede3019U,
  0xbca5545a3d84d063U, 0xbd66e33cbdcdf479U, 0xbd9fe44b3ec51bd5U, 0xbe5f0dea3c81be64U,
  0xbe388e97be010c21U, 0xbe2ca6433de07ed1U, 0x3e9a1cc63e78f03aU, 0x3d9e60d43e83577eU,
  0x3e5507ac3e633319U, 0x3df968b53cf08e26U, 0x3cc50db73ed21e0dU, 0xbe5cec9abd959104U,
  0xbd465003bd3b7c3cU, 0xbe2d873b3dc22ab3U, 0x3e2e17643dedba35U, 0xbd1200b83ef2730eU,
  0x3df10da03d93c40bU, 0x3981041a3d50d3ffU, 0xba71e39d3ddb90aeU, 0xbdb98eafbd08e968U,
  0x3ea9857f3ea47184U, 0x3e4ee790bea95694U, 0xbeff062abfa347c6U, 0xbee1986e3ed44003U,
  0xbf0353f6bf3c70cbU, 0xbf1897f4bf89a942U, 0xbf3e46abbe73ee6cU, 0x3d7d94603c0285d8U,
  0xbf663fc3bf055d01U, 0xbf8dcf6e3f067ee4U, 0x3eb807063dbcd7deU, 0xbeab6b583f951d5fU,
  0x3f62e75f3edff64eU, 0x3ead9b92bf028192U, 0x3e851bb53f28463fU, 0xbea43bf53c0c5fa0U,
  0xbf5d3eafbf07a767U, 0xbf7a76b83ef07b1dU, 0x3e8d09bf3ef1ea0dU, 0x3ebbb19f3f66fbe4U,
  0x3ebe3bcb3ef1b2deU, 0x3eef86423e2464faU, 0x3ed397693f097ce5U, 0x3ce66f323ce2d07cU,
  0x3e8672e53eab35caU, 0x3ec8cde13d369276U, 0x3e26cfb5bec6ff84U, 0xbe69e37e3fc6e6aaU,
  0xbf1597a6be8c9823U, 0xbed6832fbeb40041U, 0xbefb6428be4f3feeU, 0x3e8f5d86bd5a052eU,
  0xbd899e633cba4c88U, 0x3c03791b3ea63bd0U, 0xbea00ce73f22d79bU, 0x3f14a8e43f3bb033U,
  0x3f6550e33efc9424U, 0x3ea2d2353f671961U, 0x3ecbcffb3e84a787U, 0x3efea7263d5563deU,
  0x3e6ca73dbd360feeU, 0x3d32c375bf05d810U, 0xbedbd4e43e8c537dU, 0x3f5bf04ebdee6935U,
  0xbfa3f09ebdd7f929U, 0xbe9e06163f6df2f2U, 0xbe1970823f09b6eeU, 0x3ee7e7f33d6283ceU,
  0xbf8c7f4ebf91b6b5U, 0xbfa791b9be00932cU, 0xbf6a165fbf02ffb8U, 0xbf6f6a98be96d6d2U,
  0x3f718e89be7490d2U, 0xbf5658a8be98367fU, 0xbf8b55d0bf9ac1c8U, 0xbf79ee5cbd717f9eU,
  0xbf767db8bf881f4cU, 0xbf91c99bbf262864U, 0xbea370aebf50008dU, 0xbf100ae5bf2c12efU,
  0x401813b9bfabc6c0U, 0xbf753bff3dbb1c95U, 0xbf9d2cbfbf90d0fdU, 0xbf54712dbb55cd00U,
  0xbfa3ff9fbfac19c2U, 0xbfbf8f763f470b03U, 0x3e1a0030bf8a9ec1U, 0xbfa49a594011bec6U,
  0x403386a9bed70aa1U, 0xbe409df6bfa2dd8cU, 0xbf3e1395bfc4fc26U, 0xbfc73e7bbd72c14bU,
  0x3c4ec4fdbd4ca38aU, 0xbdcfe9043e909c75U, 0xbed2409f3ec84d92U, 0x3ddfb8f43d149481U,
  0xbb9637713ebcf2ccU, 0x3e6fbb4a3e11fbbfU, 0x3eaee764be2893ffU, 0x3ddda5603cbd4fdcU,
  0x3b8a52eabd76ae8aU, 0xbe2ca6d93ea4ffc7U, 0xbe34cdd83eb6292cU, 0x3e1a7fcd3e859354U,
  0x3ea3ae7a3ea72336U, 0x3eb85a8b3dce768eU, 0x3e71e775be56976bU, 0x3cec9aa03d0a0020U,
  0xbd15668b3ab98a1cU, 0x3cfc5d4a3ea03b6eU, 0xbe673aa43ea7c078U, 0x3e52ef303eb555d3U,
  0x3e08ba173eb53ef0U, 0x3ea18b623e820ed8U, 0x3e871dc2be802f0bU, 0x3dee412d3d2ae1f6U,
  0x3e65c3e23e92abfbU, 0x3ea595fabde6c392U, 0xbe9fcfcd3e0f678cU, 0x3e5b51a7bf294652U,
  0xbf939b28bde71adaU, 0xbd0de1973ef64a26U, 0xbcd7205abe02d27dU, 0x3ec92fc03d61e54aU,
  0x3d89597d3cecbb0dU, 0xbc88056b3d94427bU, 0xbe90b4193e72e68fU, 0x3ead3422bbc58631U,
  0xbf383d233df81d3aU, 0x3aa305693f0cacebU, 0x3e1c47543b4d7e79U, 0x3e736d8c3d7fe1b2U,
  0x3e838d693e0526d0U, 0x3e59a126bec646afU, 0xbeb5ee433e455fffU, 0x3e8a6a4abf16a770U,
  0xbfc479b5bdc1fcdcU, 0xbe39bc233e8aa19aU, 0xbe2035833e8cff02U, 0xbd88f3ef3b8e6b70U,
  0xbd6cb4dbbe53d3b1U, 0xbddaf43abeb6ae2aU, 0xbe8439dbbf2688dcU, 0xbe0d3dfe3d0433caU,
  0xbcc92f26bf27268dU, 0xbf15556dbe0e449cU, 0xbf17ca9cbf01f6d7U, 0xbcdf8e653d610a76U,
  0xbe8d65f9be9b6418U, 0xbe87c308bda9985eU, 0xbe7b6fd2be8e83faU, 0xbe0bfddd3e2b0b8aU,
  0x3e86b361be01a662U, 0xbe7116b43d41c30eU, 0xbe5c12e7bef520f1U, 0xbe7c72f53d86ea1fU,
  0xbe4edc9fbea87117U, 0xbead12a9be908283U, 0xbdcfdd8bbf44b7dbU, 0xbf14edaabe9dad0fU,
  0x3dfb584abf21059aU, 0xbeaf56adbfa84dfeU, 0xbeae4606be3d7611U, 0xbf0efa953d1ad2eeU,
  0x3e290a373d88b835U, 0x3e51991bbed17645U, 0x3e8c92b6bff2e29dU, 0xbef12af63e464c56U,
  0x3eb71774bfb071eeU, 0xbee3514ebf7ef17bU, 0xbf49a9a5bf093041U, 0x3dcc8c4dbce78620U,
  0x3d8ed487bcf0fa61U, 0x3d12c836be814b57U, 0x3ea43e3bbf0fa2c3U, 0xbe09a545be3006b8U,
  0x3eb40fb0bf12f15aU, 0xbe41b09dbe2d412bU, 0xbe8acb55be164f7aU, 0xbd148e1b3bbe7570U,
  0x3e35770338c8db98U, 0x3e82aef5bf1494eeU, 0x3cdd0924bf0a6adcU, 0xbc933f30bf1fab64U,
  0xbf235137bf3560eeU, 0xbeeff2a53dca04edU, 0xbedd3804bc5a7e42U, 0x3db5abb5bd0567a8U,
  0xbe737a6ebe674a91U, 0xbe9ab0093e769e67U, 0x3e6aca593d950675U, 0xbe9f51573eafd057U,
  0x3ef41fe83e8671b7U, 0x3e00a595be013c2eU, 0x3e5173dabec98a4eU, 0xbe77b19d3d7f6226U,
  0xbdde94b3bdd09483U, 0xbe659b2b3dc91bfaU, 0x3e4347bf3e0cdb45U, 0xbe54da86bd98e5d9U,
  0x3ef2f11d3d6cca8bU, 0x3e361a103f85cfc2U, 0x3d05d9c9beb2403eU, 0xbe4b9c653d078ac6U,
  0xbcd4ad10bd7710bdU, 0xbdd4467e3de8dc4cU, 0x3ebd7592bebb245cU, 0xbf11bf9cbe34aa07U,
  0x3ec6101ebe20654dU, 0x3d785ca1bf08d839U, 0x3992877ebf2bea60U, 0xbe3b30ae3d0d11d0U,
  0xbdcf2588ba961d14U, 0xbe482a2c3ddaea90U, 0xbdb7cc973e8bb737U, 0xbd920b0cbe80c9cfU,
  0x3e4aa0a83e5c2e54U, 0x3dba7a4b3f243042U, 0x3e4b9f38bebc0f07U, 0x3dbf62afbcef8e1cU,
  0xbd7c69d13db35710U, 0xbd066a4d3d3c0d7eU, 0x3dc699e13dd96668U, 0xbdb714fbbe2c8ba0U,
  0x3e76a0a63d9d221aU, 0x3de9f3113f3d36bdU, 0x3dc3760ebf5a5090U, 0x3e5192b63c2db018U,
  0xbe79a092be6bde08U, 0xbec0c5b03efa4c03U, 0x3e63fc2f3e4f6ff9U, 0xbeab78523ec2149dU,
  0x3f26150e3edacffdU, 0x3e9ebebf3ecaf618U, 0x3ea6117abf8f1207U, 0xbc8962503d8c153dU,
  0xbe205556bddc390bU, 0xbe2a81473e5111d9U, 0x3e9955fc3e95f6baU, 0x3e981aba3de66c6eU,
  0x3e99142a3e64d917U, 0x3d6b60fe3f2ebe53U, 0x3e04c9d23ee89a78U, 0xbe09bfe4bc091a80U,
  0xbe0019ff3c71309bU, 0xbc332362bccbdd91U, 0x3e51f1e33e3d8491U, 0x3eab48bd3e487e08U,
  0x3dc6fe3c3cc5e357U, 0xbd19e45b3f849345U, 0xba4861f93eb8590fU, 0x3de4e7fabcccca76U,
  0xbe0219ee3cfac97bU, 0xbd69a3ea3dbe8c30U, 0x3e35ac513e511994U, 0x3ea4bf923e6e1e09U,
  0x3e7246d03d9398d6U, 0xbce6b88b3f886848U, 0x3d4a21de3e87a735U, 0x3d735b70bd968eb4U,
  0xbe12de48be0131eeU, 0xbe5e05083dfdca1eU, 0x3eac873c3e704684U, 0x3e063f153e323606U,
  0x3ea8e6213e0e92f2U, 0x3dc8f81f3e8f05dcU, 0x3da7eab13f1f2639U, 0xbe429aa7bd343de3U,
  0xbddf6f4f3d4a48ecU, 0xbe4cc03abdbcdcbcU, 0x3e807a11bc980981U, 0x3e23542e3e6bac7eU,
  0x3eb8bf41bdb65f3aU, 0xbddd17883f0e3d2eU, 0xbbdd8ee83e958d82U, 0x3dccaf5dbcdd3b56U,
  0xbda35602bdc70436U, 0xbe10ba043e40a362U, 0x3e9ef3613dd87588U, 0x3e06fad43ed76f45U,
  0x3f0594693d117772U, 0x3e1418723ef9403fU, 0xbb1503ef3dfd12e9U, 0xbda637c03c8b458cU,
  0xbe26fa85bc8ed34aU, 0xbe5defe93cc7b893U, 0x3e65d1213e2b6d61U, 0x3e6bae293d867baaU,
  0x3dafd7633e418c19U, 0x3d0bc43d3ebf6e77U, 0x3d5a15273ee480e7U, 0xbd9cb7313d10603aU,
  0xbdfd6e2ebd135385U, 0x3c931953bda9e53bU, 0x3e028a47bd25c1fcU, 0x3e7415a43cadf9e9U,
  0x3dcbfd663c00ee1eU, 0xbdb2a2e73f21512eU, 0xbe2b22d13d03fa94U, 0x3de5ced43d4b663aU,
  0xbdb246b7bcd818b8U, 0xbe473ce93e2f8584U, 0x3d9769383e45a063U, 0x3e349a0a3e5449f0U,
  0x3e3858c73de6ffceU, 0x3e12a7aa3f2df889U, 0x3e1c6d623d99cb71U, 0x3cee3826bd72a1e0U,
  0xbee0140bbe937d62U, 0xbed9005b3d8b7fcaU, 0x3f222c503e317444U, 0x3ec05d793f0a0205U,
  0x3f24e86d3e303f2eU, 0x3df5249a3f2de7b6U, 0x3e074ff0be7a85beU, 0x3e41d62b3d60d15aU,
  0xbf1b3adcbee8d935U, 0xbf02f6023dd38f50U, 0x3e1829b33e94c7f8U, 0x3eb369af3e93d030U,
  0x3e30f9953dc3f375U, 0x3e1202bc3f454c1aU, 0x3d6ba3e7bd1b17cbU, 0x3d4c0bb1bda9766bU,
  0xbe786d91bd8d71c2U, 0xbe228e003df6ba86U, 0xbc85d6703d636503U, 0x3e8bd68bbd39a057U,
  0xbdfa4f233d415b42U, 0x3d969b213f3af13aU, 0x3d70f5973d24c700U, 0xbdde4ffd3d8912f1U,
  0xbd9e97e1bb5292f3U, 0x3cf016d6be5c4123U, 0x3d4403423d032174U, 0x3f09ef7c3e2f48f6U,
  0xbd9cfb0ebe12b2b4U, 0xbe2ddd823f59c912U, 0xbe09857bbe201cb7U, 0x3ec2501dbd770630U,
  0xbdbde6803c19f1caU, 0xbd1616bdbdeda97cU, 0x3d4295b4bd01617fU, 0x3f153a44bdce676fU,
  0xbe388dfcbdea60a7U, 0xbd8fe3bb3f64c65cU, 0xbe4985ec3e7a8f88U, 0x3e613e723bfa6430U,
  0xbe2ca22b3ba8b710U, 0x3b9b4c833de71ee1U, 0xbe1518703c9b0ffcU, 0x3edaa6923e93cacdU,
  0xbd9de4653de10d22U, 0x3d04a7273f48e45bU, 0x3c0b1923bd5673b8U, 0x3dc1b3423d1d19beU,
  0xbfb6e5b7bfa2ee1bU, 0xbfc017c83dcf103bU, 0x3d259e72be3688eeU, 0xbf152dc63e9d52a8U,
  0x3ee241ecbdaf3ea7U, 0xbe349a5b3ed85aacU, 0xbe1b2808bf689cd1U, 0xbf645d5dbcd01910U,
  0xc007545dbff16c21U, 0xc00d217d3d948868U, 0xbde5985ebe15eeb1U, 0xbed74d683eb2a778U,
  0x3e99bb093d10aee0U, 0xbe2143863d9cbf4aU, 0xbdcaf765bdf6c74dU, 0xbfd07ccdbcf90ad0U,
  0xc00b9cdcc0056bfcU, 0xc010c1423e12d67bU, 0xbf249dd23e286da3U, 0xbea2ee143ed1adc3U,
  0xbd4bf4af3e624f18U, 0x3c63187f3e93d36bU, 0xbd511f6dbeecd1f5U, 0xbfcc9dd9b96d8e00U,
  0xbe99e14abdbf572aU, 0xbe4b86803e45ca88U, 0x3e002a533e546963U, 0x3dd47c1b3eda0eb2U,
  0x3e79d32e3e9c9adbU, 0x3db12deb3efaebd7U, 0x3e651a113edd77f6U, 0xbd1db1f2bd342b2bU,
  0xbe7e5e71bd9933abU, 0xbe6db0453cf63798U, 0x3e8e41a23e84c935U, 0x3e875ee13e98740dU,
  0x3e7267223dfd94d0U, 0x3dd7f0863ec6c32eU, 0x3e25e03c3f1db1e9U, 0xbe0df767bda20df2U,
  0xbd9e075b3ccc1d96U, 0xbd58a9d2bdde9b09U, 0x3e9974d0bb86478aU, 0x3df6b8b73e492cf2U,
  0x3e21c432bd7483a3U, 0xbe082d003ed4e8f6U, 0xbd8a38793e846bf3U, 0xbcf8a09ebbd75590U,
  0xbe0fd5ed3c927060U, 0xbbaa95dc3c2bc137U, 0x3d9b52ba3e3ccf96U, 0x3e176b1fbd26c709U,
  0xbe7432343d2c684fU, 0x3d134b1f3eb35ae3U, 0xbd80f7723e9e048fU, 0x3d323a503d6a9e96U,
  0xbdd221203d6f6861U, 0xbe02f36cbe036e95U, 0x3e92c9da3e15e64bU, 0x3dcd47cbbdf7e366U,
  0x3e37f0cfbc873fd6U, 0xbdd15cf23eeb9ebcU, 0x3c1772503ea7ab59U, 0x3cc4ff5fbd3775cbU,
  0xbd890c263c9c74c9U, 0xbd841770bd017385U, 0x3db981043ce9d4b2U, 0xbd43c3f73e69902aU,
  0x3dab1efd3cb9c42fU, 0x3d40418d3e49e1a9U, 0x3cd6a7c03e5a8dfaU, 0x3d1c37213d9015d5U,
  0xbe13212cbe2a8803U, 0xbe6b0ad63d9bb615U, 0x3e8d4d11bd0e8d41U, 0xbd48f57b3e8f0594U,
  0x3ea806813df96efeU, 0x3cff8102bd9172c7U, 0x3d8bf47e3ea20a8bU, 0xbdb22e753c4011e8U,
  0xbea6d94fbdfcef33U, 0xbeb2f92f3e605047U, 0x3e92ed5ebd7209c7U, 0x3dac87f13eb36abdU,
  0x3f0680733df5ae95U, 0x3e2298883e5fd42fU, 0x3c11fff23dda4e94U, 0xbda735babcfbea40U,
  0xbe93b7e4be62dd7aU, 0xbe8e29ed3e7aea46U, 0x3ec2893d3d0407afU, 0xbc682cae3f0c503cU,
  0x3f0d15b03e7000d8U, 0x3e581beb3e171c4bU, 0x3e8757d83ea64e97U, 0xbe847f8bbb30a520U,
  0xbd41d584ba304725U, 0xbb9ffbb6bcb8bbecU, 0xba94287f3d4672acU, 0xbd5d7926bb80f26eU,
  0xbda11bfabd06a28dU, 0x3bcc9044bd4ded43U, 0xbd7026e33c4a616eU, 0xbd8246d9bb931f70U,
  0x3cd63913bc8319faU, 0x3c0d1cedbba3f70cU, 0x3d90221c3d0aeec3U, 0x3d0b14af3ce5e458U,
  0x3d39e064bc924cb0U, 0xbd341f42bdcbd63cU, 0xbd45b57fbd957f3cU, 0x3d6fa23e3d9105d5U,
  0xbd42afd1bd8020a5U, 0x3c23b20dbd824424U, 0x3d7dafe6bd632055U, 0xbd5c33c2bd93693fU,
  0xb9ffc2553cb32f9fU, 0xbccc5c79ba119996U, 0xbd03487a3b9876c3U, 0x3b82b9c2bce7f596U,
  0x3d4cb0923d30bf31U, 0xbdd7e194bcb6e3c5U, 0xbd52a75bbc9bdf01U, 0xbd18bbc3bcf16484U,
  0x3d663beb3ce83861U, 0x3d235ddebd26d3beU, 0xbd840f97bca4a492U, 0x3d1e03d33c99945cU,
  0xbdd3979a3d339c66U, 0xbdb016e23d82a103U, 0xbd27a84bbce649feU, 0xbc05b10d3d423985U,
  0x3d54104abc98d35dU, 0xbdb3fa43bdb1286cU, 0xbd74f46cbd8d7a7cU, 0x3b9350afbd1aa59bU,
  0x3d1c1f6c3d31be6fU, 0xbdb10b1ebd9119beU, 0xba528f3e3d3ee660U, 0x3d8434c3bd1787bbU,
  0x3d98efabbd1c79cdU, 0xbdb3b4d53bb32bc6U, 0xbd9b705b3d23721dU, 0x3caccf183a685580U,
  0x3cfeb1a4bd7679e3U, 0x3cd6cf3cbd35537bU, 0xbcccf759bb6dcfbdU, 0xbbc2a4fd3d298a1aU,
  0xbc476fe83d8ac0cfU, 0x3d905ea8bd9a7aecU, 0xbd22c4c4bda02862U, 0xbd0d46073d4cd082U,
  0x3c83c511bd31db47U, 0x3ca1b9593c975b24U, 0xbd9d1b20bda6f450U, 0x3bc264aebd32c520U,
  0xba2096003c493323U, 0xbcd11746bc34ffd8U, 0x3c94588abd204265U, 0xbd884e0cbd880882U,
  0xbcfed37cbda092ccU, 0xbd740e58bd851d3aU, 0xbd614c303cfd1c34U, 0x3c19b460bd703e60U,
  0xbcd943c6bd462abbU, 0xbd91f1ff3d204ad8U, 0x3d55a37abc1f7d88U, 0xbcb7d42c3cf785b4U,
  0x3e4289873e7b3c71U, 0x3ea53a47beeb97b1U, 0xbd8f2c18be94833aU, 0x3dbadc18bf107f59U,
  0xbf304c71bee51b4eU, 0xbe9b24cc3d49e6bcU, 0xbeb2dbd83e4c86c5U, 0x3e978bea3da725edU,
  0x3e3789d93e0c4bdaU, 0x3d9669663e198a45U, 0xbef3b2c53d3524b0U, 0xbdcb76d83c274e8fU,
  0xbf40b78d3d153fbfU, 0x3d9f7a27bd8bf87fU, 0x3b430c523d205d7aU, 0x3d3e5977bcc3acacU,
  0x3c79712a3e7b80f2U, 0x3d5393dd3ec00c3aU, 0xbe9c5cb93ec8bc0fU, 0xbe2aaa7e3e346b4aU,
  0xbe019eff3ec6108eU, 0x3e73e785be939c31U, 0x3e8860fc3f121317U, 0xbea3c3263d101c6eU,
  0x3e15f7b83e801e15U, 0x3e43c0d1bee9e9c5U, 0x3cf60ad6bf0b408dU, 0xbc5af437bebd1202U,
  0xbeab4e05bf08b62fU, 0xbeb0891dbf18b23bU, 0xbe9ca8f93eab12bcU, 0x3db386e43d2068c6U,
  0x3dc10e753d96c761U, 0xbcb4c7763db391d5U, 0xbec82f5abe435b43U, 0xbe673aee3e128685U,
  0xbf02a762bb40bd30U, 0xbdc592a9be28a7a6U, 0xbdabc1763e1e4ff0U, 0xbe0db984bd103678U,
  0xbd186c973e1fe6c6U, 0xbcabd01b3e51c816U, 0xbe81a77f3e33dd47U, 0xbe7b23303d83c44fU,
  0xbe7ff1793e4de9d7U, 0x3e020332bea6cea1U, 0x3db04b063f3649c1U, 0xbe8f9b4abd8fcafbU,
  0xbce1ebd7bd1988b2U, 0xbdc95db13dc9f319U, 0x3e525823be154e4dU, 0x3d8515bc3e5e8acfU,
  0x3de3977cbc56abafU, 0x3d89ec96bef44a28U, 0x3d7a2a963ebe5366U, 0xbeaa93cbbc2b06f8U,
  0xbe6c7deabdcfa398U, 0xbe8c73cf3e6d32bcU, 0xbde042703e09b30bU, 0xbed8d9383ea66a34U,
  0x3d9087d03d78cac9U, 0x3df62611bf0131c8U, 0x3ddd01723ee4690aU, 0xbf1c480fbcf17c30U,
  0xbe8d4fa33d777b16U, 0xbe38ef6d3e9fcedeU, 0x3dbae4473e5953bbU, 0xbeaec6d63e9f47bfU,
  0x3e2745a53e023c4aU, 0x3e88f4eebea359c3U, 0x3e71fa4d3f39d1fdU, 0xbedd34af3d8da20bU,
  0xbe09cb1ebdb2f867U, 0xbc0c4c29be31b02bU, 0xbe8549b03d8519d1U, 0x3d79848dbe1021d3U,
  0xbe8f4fec3bdb6565U, 0xbe69a2653f1078f2U, 0xbe1bdbedbf0bed5dU, 0x3d2f90c3bd7de67eU,
  0xbe9143ddbe6fef1bU, 0xbe080fe6bdad8b7fU, 0xbec0ac943ec6b0bfU, 0x3f11b3983c909b0aU,
  0xbe322e083e9423beU, 0x3d8eb0d83f92caabU, 0x3dfc4157bee65e0aU, 0x3e13894a3cb94c60U,
  0xbebb6386beb5ccd2U, 0xbed044253d8d74c5U, 0x3a712ece3ee0aa57U, 0x3ef8d85cbe212d15U,
  0xbda16b543e9a4f82U, 0x3df52a8e3fa6b0cdU, 0x3e11dbf7beb2ddc7U, 0x3e1b006ebd9eaad8U,
  0xbd05038fbe2c0f29U, 0xbdc86127be19bc77U, 0x3ea4c164be9aeaf8U, 0xbe0e1cd1bdc986a7U,
  0x3ec4329abe916825U, 0xbe3f6d903e767593U, 0xbe6fa96cbe95eb73U, 0xbbd1aebbbd37890eU,
  0x3d82e410bd801fafU, 0x3d461581be7bdd87U, 0x3e5fd597be89433cU, 0x3e1b220bbe8aa31fU,
  0x3dc9e6bebefbc3ceU, 0xbeb3097f3f883d63U, 0xbe8e251dbf12621dU, 0x3e851a76bd608ecbU,
  0xbcb8ce19bd1a3286U, 0xbc9a5eb9be291471U, 0x3d539f33be4b360aU, 0x3d4b91c2be0f0156U,
  0x3cd804abbe51f5e0U, 0xbe5afbd33f768f25U, 0xbe013d7cbeee25daU, 0x3e5286023d817475U,
  0xbfb61322bfa152f4U, 0xbfbe346e3e7134a4U, 0x3e72061c3e188746U, 0xbf0758f83ec3c222U,
  0x3f0d97b53e78985cU, 0x3e0257003f31f87dU, 0x3e3cdc64bf048ef3U, 0xbf44c696bdaa4cd3U,
  0xbfce9808bfc0193cU, 0xbfe623ae3e187f6aU, 0x3e11852c3dd3f868U, 0xbee9c2e03ebc2c1aU,
  0x3f01884d3debb404U, 0x3d4d08b13f416ca5U, 0x3da22a9abf0898a9U, 0xbf9edf253da29875U,
  0xbfb6a710bfaf2e45U, 0xbfbde4e83e1a57e2U, 0x3d8708ba3e2d200fU, 0xbee6d0b43ea9225dU,
  0x3e968a273e18a88bU, 0x3d8026383e6bf2e6U, 0x3cf71903bec02cf1U, 0xbf9d40f9bd7173f6U,
  0x3e0def993e072144U, 0x3d3a0bccbe223a2dU, 0xbe251d36bf1acd39U, 0xbd56497d3e520b7dU,
  0xbf7d8566bed7ef0dU, 0xbd4bd2e7bf13a0f6U, 0xbe2b42eebcd84cfeU, 0x3ddc1b12bcc8b7fcU,
  0xbd48a9a93ce4eac0U, 0xbd07b6bf3f0877f4U, 0xbdd99c773ecda7cbU, 0x3d0b4f503f120065U,
  0xbe9140583ecc22c9U, 0x3ec1fb6ebca23e5bU, 0x3ec654473e8e0a24U, 0x3deb182ebcd92d56U,
  0x3dec2273bd468d3eU, 0x3dff83f2be9e67adU, 0x3d97caa6bd52a078U, 0x3d8fd78cbf238d64U,
  0xbf217b89bcc673a8U, 0x3c62ce71bf447e6fU, 0x3daea2133f0edd64U, 0xbdffcf213aadf840U,
  0x3d59498d3d118d27U, 0xbd264594be72a94bU, 0xbe6b3c1bbefb0dacU, 0xbe457ddfbe086f13U,
  0xbf281494beeb8291U, 0xbea8dd59beb44ad2U, 0xbe34d043be99e527U, 0xbd626be83d4fe1eeU,
  0xbd6f5200bd1e0754U, 0xbdd102dc3dea5a0cU, 0xbcd927d13ee13a71U, 0x3e0cd41a3d831db9U,
  0xbdfb4f403edb5a3dU, 0x3cf6f70e3f8d2b84U, 0x3de6a9763de95d27U, 0x3e284cddbbb17c30U,
  0xbb496aebbe0aca46U, 0xbda22e7fbf696a8fU, 0xbd89b0cdbe3d24c1U, 0x3e123001bfa239f0U,
  0xbf6f1417becafd17U, 0xbea634283e4bd773U, 0xbe076bd83e2f536dU, 0xbd754b1b3d53495eU,
  0x3d3a6a473d9d6004U, 0x3d6ea6c73e8ee66dU, 0x3e88adeebec22902U, 0xbe70ca953f3833d5U,
  0x3f000675b95dc1beU, 0x3d50e14cbfa227aaU, 0x3c33f8b7bdf2d72eU, 0xbcc74a9cbcb79036U,
  0xbc160d483bd74e54U, 0xbaf7de583eaf8a42U, 0x3ed8d836bd545b55U, 0xbe3af62b3f1f7b85U,
  0x3f5afa5e3e1caf19U, 0x3e3126e8bf77ed24U, 0x3e8480bd3e0f67d8U, 0x3bcf976d3cb4ee60U,
  0x3d9e460f3db2a28eU, 0x3c277c8fbdb632efU, 0x3e46dbbbbf2dfc70U, 0xbe059b77bd7a7aa4U,
  0x3e9a80e3bee63601U, 0xbdad83cdbf9761a8U, 0xbd1c8973bddfbc8eU, 0xbdf68fa6bd84135eU,
  0x3de863673decf90bU, 0x3d33e4e93eb2c0dbU, 0xbe4b61743d28cd1aU, 0xbf0f1f593de2ac3fU,
  0xbda1bd773dda7159U, 0x3e0f7ea7bfe80a34U, 0x3e4c40fdbd9ed711U, 0xbdf7ae1e3da4ccf1U,
  0x3ddc36613c3d75d6U, 0x3dcbaadd3e112ae5U, 0x3e468ba83d58981cU, 0xbe4907b1be256fd8U,
  0x3e8607b93e47a574U, 0x3e3df1f0bf7426ebU, 0x3e8691293d112983U, 0x3c4dae3d3ca766c0U,
  0x3db900693de8152eU, 0x3e17c3ccbf0be5b6U, 0x3ee515dfbf44750bU, 0xbe700ac1bf3971a8U,
  0x3e9ec77abf23952aU, 0xbe138324bfb338daU, 0xbd8a9a873e194d51U, 0xbd16528bbd4d811eU,
  0xbd8086f7be4e6db3U, 0xbe19ecb73e7c3080U, 0xbe5597ac3e9be814U, 0xbd5fb735bd521279U,
  0xbdba9ec03e8b10aaU, 0x3ea1db69bf079982U, 0x3e877ae8be5882a5U, 0xbd33f0893cf55d30U,
  0xbde84cb2be220eb2U, 0xbd2d07833e30dfa4U, 0xbdecac643ec71c77U, 0x3cc17f133c22434bU,
  0xbe1755ff3e60555cU, 0x3e7bc80a3c90458fU, 0x3e93f4ddbd836e2aU, 0xbc6db7483d0481a0U,
  0xbdf2b78cbe1a60cbU, 0xbcebfa81bc1f12f4U, 0x3e2c06233dcb2ea5U, 0x3e2e289dbdd24cf6U,
  0x3d5c5f8bbdb3c763U, 0x3e43c516beccddf2U, 0x3e65cf5bbd3c958bU, 0xbcd739653d3c9fd2U,
  0x3e394cdd3da983b1U, 0x3e10b35e3dab8874U, 0xbe7346c13e1029daU, 0xbd2a4ff0be3d211eU,
  0xbebd0b023e18574eU, 0x3e24a0adbec8648bU, 0x3dbedd9c3bd231edU, 0x3d662b273cdc5fc0U,
  0x3dd5e5e83df0cf8aU, 0x3e11165abe15c1f1U, 0xbcf3ca9e3dac8b1fU, 0x3e77594bbeecaa33U,
  0xbee82892bd3e81c4U, 0xbc5eb11dbcfe4d9cU, 0x3e61778c3d925573U, 0x3e368031bb8fc1f0U,
  0x3e10d8003cb0852cU, 0x3db71141beeca4c9U, 0xbdc7214ebd0c96b1U, 0x3eda85f6bf465490U,
  0xbf1c5383beaf842cU, 0xbe019cac3ea5932eU, 0x3d867dc2bd44ef69U, 0x3e5380f9bd209376U,
  0x3d48eeccbd4f78e9U, 0xbd75414c3d033fd0U, 0x3cf215923d591e32U, 0x3dcdcc93be139b20U,
  0x3c8541a8bbafdde8U, 0x3d8bc280bd59c2ddU, 0x3c87e0333c059b81U, 0xbdb0cdab3d767d13U,
  0xbc22cb59bc5573f9U, 0xbe41d803bb29d1f6U, 0x3c4f92acbd9cfcc9U, 0xbe1716d7bd4ef90eU,
  0x3c117957bc4b4b94U, 0xbda3beb03d36c302U, 0xbe011d473bcb62cbU, 0x3d33a200bd82b676U,
  0xbe970b4ebee0bd23U, 0x3dbaf7963e05bdbcU, 0x3efa0d00bf31faecU, 0xbf35716bbf312d5aU,
  0x3e34a05abe84288dU, 0xbdc0a129be218ad5U, 0x3dc2240a3daae35fU, 0xbcc7ebe53e94e1acU,
  0x3c9099963e1b918eU, 0x3e02c0c8bf225809U, 0xc00e8ddd3e45f914U, 0x3e53e70dbc953748U,
  0xbfa6da1b3e3f1987U, 0xbd9bec763e215557U, 0xbf53868c3ebba595U, 0xbdc4873abeb0021cU,
  0x3ebfade93eb0054aU, 0xbd9950fe3f09111dU, 0xbcbc4ef83e0b55e0U, 0x3e92ac3cbfd1216bU,
  0xbf0f17603efc9f3eU, 0x3ea17782be31f5aaU, 0xbf38ef723ee60a28U, 0xbf5d2ddfbee9d83fU,
  0x3aedf573be5a9aabU, 0x3dc98dd93e1457a7U, 0xbf3380a9bb921e6bU, 0x3d01f70bbc21c017U,
  0xbf8b5aa8be965e09U, 0x3d94a263bd555143U, 0xbf04fe2a3ee97c28U, 0x3ec53858bf196e50U,
  0x3e3493d1be62e726U, 0xbd492398beba03ddU, 0xbe6af8f33faebc1cU, 0x3ebb4b9bbe280cf0U,
  0xbd3624343e3fe01aU, 0x3d51ce9b3d86238eU, 0x3d211193beb0e8bcU, 0x3e77192e3c177921U,
  0xbdf808b4bdcc6074U, 0x3e203884bec4e6e9U, 0xbdacdf7d3c9d9131U, 0x3e8bea963e5f6073U,
  0xbeb98c063e20c3b8U, 0x3dccba963da4a8bfU, 0xbebc5e8dbe375befU, 0xbe8d99203e9f2396U,
  0x3d267f46bed73481U, 0x3f3b480b3d18152bU, 0xbe65f86dbeead468U, 0x3f01752f3dc45242U,
  0x3e2d3d0f3e8988f9U, 0x3e008a733e618d2dU, 0x3e2c7a873ea1c9eaU, 0x3e2e432e3d4e3851U,
  0x3d46ba183e7d96eaU, 0x3efd7ba2bef6325dU, 0x3fcdbfe1be9a545cU, 0x3de291a4bbbf51c5U,
  0x3f04f677be51c3d7U, 0x3e0ba96dbe433b22U, 0x3f49bea3bf47f66bU, 0xbea5233fbeadaf87U,
  0xbebf72b9ba3729d1U, 0xbf21a1a5be5a02e0U, 0x3ea0c8eec04e6edaU, 0xbdb091e1be0581f3U,
  0xbd9704e6be27c50cU, 0xbea48d1bbe3ee89eU, 0x3d9183c33e9ba4adU, 0xbf07f4933e2f4637U,
  0x396747ab3dbb9275U, 0x3de21bb03e90389eU, 0x3e81aefa3e1ec47aU, 0xbf19dce63ed2552dU,
  0xbe22453ebde6e371U, 0xbc2ffb7c3de387d8U, 0xbf0dee583e6f4306U, 0x3e793f043ed5623cU,
  0x3df30a7a3efdb2c8U, 0x3eee47213e05aee7U, 0xbeb6c506bef55f5fU, 0xbeac71db3f032a75U,
  0xbda11f2d3d451067U, 0x3ed69be03e4cd27fU, 0x3ede2425bea73023U, 0xbe958f2abe74d268U,
  0x3e075458bd040fdeU, 0x3e4987493e9eb636U, 0xbf1e84b6be65c434U, 0x3e8471853f04aedeU,
  0xbe72dbbabdef6c2aU, 0xb9f1f1b4bea344d2U, 0x3f5eeec4beae31caU, 0x3bbe5b16be0091e2U,
  0xbeba8a123ebf7a28U, 0xbf1aad81be4abf9bU, 0x3cd39ceb4017f88bU, 0xbe98ef6f3f070ed3U,
  0x3e8eadbcbe87d93dU, 0xbd3b2b683c91c6e0U, 0xbe2f563ebd987634U, 0x3e28dca73da5356aU,
  0x3cc74cf8bda17751U, 0xbf2b8ccc3e8eb354U, 0xc03968cf3eb79a25U, 0xbeca7262be1de8b7U,
  0xbf48f8473e268168U, 0xbe2700f7bcbb3c10U, 0xbf07cd653d603c04U, 0x3da4bde7bea21d1bU,
  0x3e43d93f3e011027U, 0x3e216bc83eec0099U, 0x3d710cfa3eca82b0U, 0x3d820e10be2aef11U,
  0xbea312fe3e4d7e96U, 0xbd63d118bf2b7fc5U, 0xbeaefbc33de44c24U, 0xbecbeca8bd66c59eU,
  0xbd65fe90bf0caea0U, 0x3eab7a713d11fad4U, 0x3fe373f5bdd349f1U, 0x3f4306fb3ec20589U,
  0x3efe3d82be8c7f6eU, 0xbe02aef0beb7a907U, 0xbca5d563bcad3bc8U, 0x3e9965763f2e632cU,
  0xbe3fb9193ecb74aeU, 0x3e9b3adfbe1921efU, 0xbd947947bf95bf46U, 0xbeb150103ed5e73fU,
  0x3df9fe2fbdb76ebfU, 0x3dd7c3e63f10677aU, 0x3e5d7263be9b0701U, 0x3e7e04903df18734U,
  0x3df5fd1a3ed8f028U, 0xbe93b9123e617820U, 0xbfadeb743d0473e0U, 0xbee92a2abf867ab3U,
  0x3f2a23533d426031U, 0xbd5ddd3b3e1ada97U, 0x3ebe0f2bbca36f31U, 0xbe8c17b4beeee263U,
  0x3e550ecabe7ec2e2U, 0xbe9138fa3d3f096bU, 0x3e2c5160bf4f0d4bU, 0x3e46bb5c3e260ccaU,
  0x3b202116be4ba9b7U, 0xbe9749aabe45309dU, 0x3e1fbec33d8cf3d1U, 0x3eaee321bcc90227U,
  0xbcc447373e1619c1U, 0xbf081e813ceee3e8U, 0x3f7bd6afbb24d3b3U, 0xbec857a6beb364dfU,
  0x3f826779bd300b49U, 0xbb2696a7be1438b6U, 0x3e9fbaa63de82471U, 0x3c41c3d73e0907b1U,
  0x3c62c1de3d50f210U, 0xbe4c171d3dcb4fb9U, 0xbc61732abe748bdfU, 0x3cb506923d98403cU,
  0x3d442f9c3e6f2408U,
};


ai_handle g_network_weights_table[1 + 2] = {
  AI_HANDLE_PTR(AI_MAGIC_MARKER),
  AI_HANDLE_PTR(s_network_weights_array_u64),
  AI_HANDLE_PTR(AI_MAGIC_MARKER),
};

