/**
  ******************************************************************************
  * @file    network_data_params.c
  * @author  AST Embedded Analytics Research Platform
  * @date    2026-04-13T15:56:53+0530
  * @brief   AI Tool Automatic Code Generator for Embedded NN computing
  ******************************************************************************
  * Copyright (c) 2026 STMicroelectronics.
  * All rights reserved.
  *
  * This software is licensed under terms that can be found in the LICENSE file
  * in the root directory of this software component.
  * If no LICENSE file comes with this software, it is provided AS-IS.
  ******************************************************************************
  */

#include "network_data_params.h"


/**  Activations Section  ****************************************************/
ai_handle g_network_activations_table[1 + 2] = {
  AI_HANDLE_PTR(AI_MAGIC_MARKER),
  AI_HANDLE_PTR(NULL),
  AI_HANDLE_PTR(AI_MAGIC_MARKER),
};




/**  Weights Section  ********************************************************/
AI_ALIGNED(32)
const ai_u64 s_network_weights_array_u64[2565] = {
  0xbe9d8fbb3d9b3d30U, 0xbdec0d103d100980U, 0x3de29534bea56fd6U, 0x3e7bb88a3e53ba12U,
  0xbd46fb403d6b3b68U, 0xbe3489883e596bd2U, 0x3e1c7a283e300b8aU, 0xbea63457bea251d0U,
  0x3e77338abe94678bU, 0x3c909770bce90cc0U, 0xbe825e43bcebedd0U, 0x3d2f7a98bd2101d8U,
  0xbe002c033ea12609U, 0xbe1064983c801dd0U, 0xbe925b973d219c98U, 0x3d8e891cbe06f80eU,
  0xbe3f98b6be4d3b43U, 0xbe27f5f63d54f108U, 0xbc91a400bc36ac20U, 0xbe818887be302510U,
  0x3e707dc2bc57d100U, 0x3e8324d13ea03a15U, 0xbc739c60be4a0590U, 0xbe0bb6a03ea135ffU,
  0x3d65afc0be1eebe8U, 0xbe11c210bcd7afb0U, 0x3e8063d73e46b18eU, 0xbe1bd6f0be2487ebU,
  0xbe3d37d0bea8d8c2U, 0x3e58023ebd832554U, 0x3d1bd4a8bd2c9fd8U, 0x3ea03a51be6b7606U,
  0xbe916dc43e3c6c2aU, 0xbea5bdeebd897b3cU, 0xbe5b10de3c43e480U, 0x3cb75df0bdbb1b70U,
  0x3e91721dbea40847U, 0xbda62aa4be46a5f3U, 0xbe7742363e8f0429U, 0x3d976744be0c7d66U,
  0xbe91c4a6bdff5866U, 0xbe5986bbbea1dd94U, 0x3dc964f4be71ba7eU, 0xbd248e48be4bafceU,
  0x3e8fcde53e3278aeU, 0xbdeef8503df98ae4U, 0xbe50f6c03e135d90U, 0x3e6a0796bea71ff3U,
  0xbcce58d0bdc27a7cU, 0xbe6442f8bde3c8f6U, 0x3e428fd63d1add88U, 0xbe6b1c0ebe8b3f24U,
  0x3dafdc343e80da7bU, 0x3e5f5e063e5cfd92U, 0x3cc382c03aefc100U, 0xbe8859bb3d91ff00U,
  0x3da2637cbd43ce00U, 0xbdcab9d0be6aef70U, 0xbde5a7fcbe987e4eU, 0xbe635548bdc70facU,
  0xbe15a1c3be2f8470U, 0x3ea4e5433e6ba3d2U, 0x3e7a1ed2bde98146U, 0x3da08444bdea2c06U,
  0x3e98d709bd8ae390U, 0x3d05b320be282053U, 0x3e6ce2ce3e15f006U, 0xbe382563be4df9d3U,
  0x3e598fcabe040f3eU, 0x3e793d5abe96a75fU, 0x3c76f000bdb91350U, 0xb9467800bd0425b8U,
  0x3daccb34be5b3968U, 0x3e8770e73d2b0300U, 0xbe9d9a7fbe607afeU, 0x3ea62d893ea58d71U,
  0xbe48e8bb3e71fc8aU, 0xbaad9c003e1f5a1eU, 0xbdd9f370be877028U, 0xbc97cf903e3b7f7eU,
  0x3d92b513bda7d068U, 0xbd22d3533c822a54U, 0x3ccb253c3d8f80c5U, 0xbd7a1598bd810eabU,
  0xbd4833c83c145058U, 0x3bca3490bc924710U, 0x3d7fd30a3d8f0b07U, 0x3d41ee1a3c467740U,
  0xbc3e8968bd830fefU, 0xbd59fe563d7c3146U, 0xbd2ba8d8bd6f6528U, 0x3d6d4c3a3cf8b7f0U,
  0x3d831df7bcb30d36U, 0x3c879f84bda9ae98U, 0x3d961c61bd23400bU, 0x3d885bf13c884a34U,
  0x3c2adbe0bbf2a3f0U, 0xbcb479303d9787bdU, 0xbce1fa30bd8bb6ebU, 0x3c901f2c3cc5a46cU,
  0xbc5c85a03d931bf3U, 0x3d90bdebbcf3553cU, 0x3b1fe0e0bd8dc35eU, 0xbda57f603daa8c61U,
  0xbd9aea1cbd51146bU, 0x3d8a40e53c414868U, 0x3d728a22bc081800U, 0x3d47660abd12ae3eU,
  0x3d0ab1b83d68e64eU, 0xbca5f6003d5d8372U, 0xbcb02a56bd9fad6aU, 0xbd17af96bd1371d6U,
  0x3d4c4bda3da76e4fU, 0x3da4900d3d47aca6U, 0xbce6fbcc3c3b80f8U, 0x3c6625b8bbd80900U,
  0x3d48565a3d63972aU, 0x3cad18343bc86ef0U, 0x3d843959bd2f0ce6U, 0xbda874b4bd446f66U,
  0x3d153baebd05a796U, 0xbd51f053bd6970d0U, 0x3d37abf6bd49bb73U, 0x3d77706e3d0c5112U,
  0xbd826430bc80bcb4U, 0xbd88db563d91e931U, 0x3d84731f3d5a8862U, 0x3d87898dbc4419b8U,
  0xbbf202f03d670522U, 0xbd85ae60bc1cf068U, 0xbd98a07bbc498008U, 0x3d0e39be3c86739cU,
  0xbd6c2fde3d66b936U, 0xbb98c7d0bc82b500U, 0x3d7a84d6bd5828c0U, 0x3da575b9bd539278U,
  0xbd9f37ef3c98e9c0U, 0xbb8c81503d59e212U, 0x3d8161c93ccc27b4U, 0x3d38963abd098f53U,
  0x3d3df0a2bd3392cbU, 0x3c9d57d4bbabc8b0U, 0x3d3246763d8d3357U, 0xbd588d903d8b9897U,
  0x3d8d78173da30709U, 0xbd174216bbe2d9b0U, 0x3ceadebc3ce5ae94U, 0xbda49b1bbcbd6586U,
  0xbd7bba0bbd62dc43U, 0x3d4b9dcabcf1ef46U, 0xbd96834e3d9eaee5U, 0x3cdb7194bbb3a610U,
  0x3d6bb1aabd309606U, 0xbd9927203d3668c2U, 0x3d72cebebd157af3U, 0x3d7cdd9a3ced454cU,
  0x3d980911bd948f0cU, 0xbd631f88bcd8f7e6U, 0xbd9c4d6cbd40f94bU, 0xbd8640de3d6c82eaU,
  0x3d91ffc33d5b47baU, 0xbc3d5fb83cab08b0U, 0xbd057c03bd851fc2U, 0x3c2ef620bd03ac08U,
  0x3d7fa25ebd63c65eU, 0x3d878a733d0e30c6U, 0xbcc2752c3c8e6804U, 0x3d57934abda504a8U,
  0xbd830f683d7b9aa2U, 0x3da8319bbd686740U, 0xbd81e274bc4b2f68U, 0xbd9d5933bd8c6e3fU,
  0xbbbe9fb03d2cb116U, 0x3cbdd3fcbda463bbU, 0xbbea3200bd285793U, 0x3d77ab92bb526ea0U,
  0xbd43893ebd590a6bU, 0x3d672edabd8276a0U, 0x3affde40bd95c07aU, 0x3d7f00ee3ce3ff60U,
  0xbce538e6bd88243cU, 0xbd7abf10bd1ab813U, 0x3d0563d6bc34c880U, 0x3c1fac283d189682U,
  0x3c28f7d8bcb0c3fcU, 0x3d66a6d6bc638a08U, 0x3d46ea223d50b8aaU, 0x3d830bb1bc9ab2bcU,
  0xbcc79ac63d0e5962U, 0xbc04c2e0bc8b9a90U, 0x3d0f2eb8bd9096e2U, 0x3d7ad952bd1c524eU,
  0xbd8a3aacbbb222d0U, 0x3d7a7d563c95d084U, 0xbc515f80bca078e4U, 0xbd8438c4bbccc8d0U,
  0x3d8cc8213d56fba2U, 0x3d1031623da2637dU, 0x3d90a01f3d9329a5U, 0xbd689ca63d9bd881U,
  0x3d9dc0fd39ec8300U, 0x3cd527843da04905U, 0x3da17d9bbd9ed798U, 0xbda11f5cbbbe5b00U,
  0x3d80b4133d66d6feU, 0xbd0b0ef03cb43bbcU, 0xbd7529e33d41b23aU, 0x3d2f154a3d97192fU,
  0xbcf33f363d8c1e05U, 0xbc9fe74cbd16295eU, 0x3d6c8a1a3d4748aaU, 0xbda297aa3d90ed51U,
  0xbc9e1580bd510ae6U, 0x3da4d0f73d7d964aU, 0xbd9e5e6cbda3aefcU, 0x3d6f8f2a3d4793aeU,
  0xbcf27f7c3d93d7d9U, 0xbbb3e0403d4bba76U, 0x3d696ad2bd90fe1bU, 0x3d1d305e3d1adaeaU,
  0xbcdbf95c3d5fb742U, 0x3d05ae0abc84236cU, 0xbc31f3f8bd732ccbU, 0xbd066ebe3d05f02aU,
  0xbd823f0fbd90505cU, 0xbd3e6bc3bc4b1588U, 0x3cc9d1a03d0c2f76U, 0x3d707d46bd8371d4U,
  0xbd810d6f3ce8fcd0U, 0x3da829013cbd25f4U, 0xbc6da700bd0d94abU, 0xbd24b880bc4e2b98U,
  0xbd73181ebd959ae7U, 0x3d9b43713d1fdd0aU, 0x3d5ed1623d58dea2U, 0xbbc4afc0bd5a6bfbU,
  0xbd10511b3bb266d0U, 0x3d9e05f13da70947U, 0xbda4eee33da7ad11U, 0x3d30573a3c660978U,
  0x3d92907dbcd397e6U, 0xbda3410abaf0c5c0U, 0x3da3445bbd08a353U, 0xbd7539863d69cb4eU,
  0x3ca2d71c3d3941baU, 0x3c0298283d9cbc41U, 0x3d4e3da2bcffd8dcU, 0xbc8b8d943c546e78U,
  0x3d280d3ebd0ba05bU, 0xbd55c5a6bd2be2abU, 0x3d2501063ca8df54U, 0xbd2107eebd88c4a0U,
  0xbc7aa1b83d970ea5U, 0x3cd81a543d142d60U, 0xbd9df5ab3d4679deU, 0x3d5aa632bd476c7eU,
  0xbd59f9463da3b579U, 0xbd72eb663d5559c2U, 0xbd83d3d63d25bf76U, 0x3cbdf9943da3dd71U,
  0x3da2bb9fbd14f046U, 0xbd5d42763cefc4d0U, 0xbd267466bcc911dcU, 0x3c6a8cc0bd5f3320U,
  0x3d12ebde3d39838eU, 0xbcb62d503d9c5095U, 0x3d06bca23d8c9bfbU, 0x3d945a793d0e8818U,
  0x3d0c939a3d8b1915U, 0xb7a8b0003d558452U, 0xbc803740bd88361bU, 0xbc174ce83bdd88b0U,
  0x3d0e8bb63cd98cd4U, 0xbd4bdea8bd98256eU, 0x3da26dcb3d77b67aU, 0x3c123cb8bd98f15eU,
  0x3da885533d2b17e2U, 0xbd99e41cbd462b66U, 0xbc5b5c28bb9510d0U, 0xbda5fe3bbd744b33U,
  0x3d06dd90bcc74510U, 0x3b463c20bda99cf6U, 0xbda7afd0bca24aacU, 0x3cce03dcbd178548U,
  0xbd8c658fbd55137eU, 0xbc2e1e883d20d422U, 0x3d2c9b02bd838a4fU, 0x3da98f27bd866043U,
  0x3da092b9bd17126bU, 0x3d4f76423cdb6f4cU, 0xbd0cdef8bd9e30d7U, 0x3cd9ca943c5c7788U,
  0x3d26f970bd2e7830U, 0x3cc4115cbc7cc0e8U, 0xbd7a3580bac78040U, 0xbd89a8733cbd092cU,
  0xbcbd2206bd74c34eU, 0xbd8a5d5cbda9d2e4U, 0xbc89173c3bfbc350U, 0xbd0e00bb3c874e30U,
  0xbd02a3f03d98b9abU, 0xbd9e5a9bbcfec2b6U, 0x3d9f5f99bdaa355eU, 0xbc5bbcd8bd2dbf96U,
  0xbc8674e03cfa70a4U, 0x3d3cb8423d533012U, 0xbd183cf0bd40f726U, 0x3b5af0603d816a6bU,
  0xbd118b8bbd63c640U, 0x3bdc6e703c9e24b0U, 0xbd1318a6bd3d4c43U, 0xbc5b56e8bcf5d5e0U,
  0xbc9f9434bd7f162bU, 0xbce0c0163d0744f0U, 0x3d0e40083b791680U, 0xbd9a3967bd5ec580U,
  0xbda095ef3d6e4f42U, 0x3da244753cd20660U, 0x3da276093ce3f0f4U, 0xbd6ef9063d912177U,
  0xbcd94926bd87b2a4U, 0x3d5ff6b23cc95cbcU, 0x3cbd0f24bb856c80U, 0xbd6133a3bcdd9b50U,
  0xbc0039583d107d40U, 0xbccfbd863d9512f1U, 0x3da5de713da2f939U, 0xbd3d60603cc8e30cU,
  0x3d98e63d3d93faafU, 0xbd91ee62bd9616b6U, 0x3cddd224bd391fa0U, 0xbc5d69f8bd195530U,
  0x3d2c4b66bd260d20U, 0x3c4755003d50d552U, 0x3c029858bd5e2878U, 0x3c50f0d83d7d8442U,
  0x3bcc4f00bd2f64d6U, 0x3d210aa0bc755598U, 0x3b723480bda9668eU, 0x3d9bb15dbc873ff0U,
  0xbd5a2760bc774978U, 0x3d9fac913cfa8770U, 0x3a0c92803d071b22U, 0x3c4461683c938fd4U,
  0x3b0ccfe03c8b80c0U, 0xbc660bc83c2a0dd8U, 0xbce4ad163c8ab130U, 0x3d3cb9c2bd11a370U,
  0x3cedbf04bd9e181fU, 0x3d6c4ad23cb8a1d4U, 0xbd2f59c0bd87f950U, 0xbd0658e3bd9bd1fbU,
  0x3d622d62bd5ef3b8U, 0x3d65d89a3d67f91aU, 0xbd26c4203d22c190U, 0x3d3d3eb2bd1c7956U,
  0xbce9fa06bd8f1effU, 0xbbeccf303cefb80cU, 0x3d43da6a3d815dadU, 0xbb6af900bd42cef3U,
  0x3d9e4b793c4c0808U, 0xbd8a1def3d39ea62U, 0x3d325f32bd526ffeU, 0xba0554003afdd600U,
  0x3cc74c24bcc046c0U, 0xbb914a90bb72a120U, 0x3d0ff42e3c7aaac0U, 0xbc5199683d198feaU,
  0x3d891c5dbd4141d6U, 0xbce3deb63d4a37daU, 0x3d8d4f51bc759248U, 0x3c2efbc83ca57140U,
  0xbd62b9583c4453d8U, 0x3d3e77e63cc5269cU, 0xbd98002fbd8f5096U, 0x3cb54d8cbd2939b3U,
  0xbbd0fc403d3fe53eU, 0x3d34374a3d3670d2U, 0xbca310ec3d766732U, 0xbd9167803c723508U,
  0x3a746580bd4fc608U, 0xbd4707183cc156f4U, 0xbda17264bb890870U, 0x3da984dd3d22ac36U,
  0x3d52243a3cddb130U, 0x3d38594a3d01cadaU, 0xbd87adfbbd8570b0U, 0xbc7d93a0bd9b5488U,
  0x3d50ce0a3d3da0eeU, 0x3d2f897e3d856d41U, 0x3bbd0c50bd15a1d0U, 0xbd884cdebcb6310cU,
  0xbd236f0b3d9721d5U, 0x3d217deabcd49190U, 0xbd48db7bbc500040U, 0x3d3410823b70af80U,
  0xbd9b50b3bd3d776eU, 0xbaf56ac03da8b461U, 0x3c5b5cc03d8725e1U, 0x3d068cb2bd7a91c6U,
  0x3cf01b843c727d60U, 0xbd9c10ae3b08d020U, 0x3d99a9f7bd02d0f0U, 0x3c8359843c4cd0f8U,
  0xbd90ef82bcce9e20U, 0x3d8e03793c839f84U, 0x3d766d523d2ca77eU, 0x3bc356c03d98c559U,
  0xbc979540bd94ae34U, 0xbd8540033d111260U, 0x3d8de64b3da293d5U, 0xbd7e4ee6bd6effaeU,
  0x3c7305a8bd1eb203U, 0xbd24c5db3d65b836U, 0xbd55fca63d2f6cfaU, 0xbcd25c10bc4e43a0U,
  0x3d61287abc2f1b00U, 0xbc2888b8bd334090U, 0xbda0a5683d2a56f0U, 0x3d2b5e6ebc9fa774U,
  0xbcfdf790bd80ff47U, 0x3d1bf9963ab8d140U, 0x3c5135c0bc905e3cU, 0xbd88a660bc2aa048U,
  0xbc9d20243d92f7c9U, 0xbd2add2ebcd0943cU, 0x3d5dc30abd09eb83U, 0xbd8054e03cb96c8cU,
  0x3cc9cebcbbb0ce50U, 0x3d5cc22e3d963e11U, 0xbbdc8a903be931f0U, 0x3d7929b2bc376380U,
  0xbaa9ff40bd13813bU, 0xbcd6fa0c3d804b65U, 0x3c5844083da20021U, 0xbca4a000bc38f9d8U,
  0x3cd50730ba499780U, 0x3d271076bcf99c50U, 0xbc373220bcf16860U, 0x3d6334a2bcacb5c0U,
  0xbc9caa6c3d7f5d0aU, 0xbd7031a0bd9a99deU, 0xbc3e4dc83c45af00U, 0xbd88457cbd59e84bU,
  0xbd98e4f33c3cd378U, 0x3d2081eebb96fd30U, 0xbda16fff3d9fded1U, 0x3d95924fbd4561fbU,
  0x3d2335a63d7d1d26U, 0xbd74e5e0bc82fcd4U, 0xbcb1681c3d114be6U, 0x3cf32e5cbcdcb20cU,
  0x3d9d080bbd91bedaU, 0xbc6f00403d841b71U, 0x3c5457083d45c29aU, 0xbd075ffb3c877e20U,
  0xbcd6f2b03ccdcf60U, 0x3d96fac53d36c5ceU, 0x3d172276bd93fc62U, 0x3da0b8b13d4d4092U,
  0xbd2e3ba83d296976U, 0x3c4858983be15bf0U, 0x3d1932783d21ddf2U, 0xbd41a2c33d126486U,
  0xbd9c070ebd8bffcbU, 0x3d7f4f523bf8be90U, 0x3d852ec13d8d68efU, 0x3cddbe94bda5167aU,
  0x3d2f6fb23d3cb43aU, 0x3cff27903da89debU, 0x3d10da08bc5be280U, 0xbd68c6e0bd826576U,
  0x3ca52f203cf357d0U, 0xbd6b63933d8b80e7U, 0x3c81e84cbd09613eU, 0xbd9eb1d43d7a64faU,
  0xbd839fe2bd8458dbU, 0xbda6a0afbd967032U, 0x3d8dd8ddbd00141eU, 0x3d12677ebd4640f8U,
  0x3d85c571bd9cba58U, 0x3b87adf0bd95d2dbU, 0x3c1d1cf8bd117446U, 0x3d65f602bcc198dcU,
  0xbd71529b3b6336e0U, 0xbd537bfb3da0985dU, 0x3d713c8a3ca84af4U, 0x3c6261e03ccbf1ccU,
  0x3d4044cebc5f9d58U, 0x3d245fd63da14bd1U, 0xbd18ed503cc21584U, 0xbc8e5410bd81f127U,
  0x3cd5754cbd200226U, 0x3d2290e2bda0e906U, 0x3b3d10003d9e0455U, 0x3b0f7e00bcb90096U,
  0x3d257e003c4c0148U, 0x3d1e9bbabd8c1b24U, 0xbc4e59e8bda40496U, 0xbd89a1773ad87540U,
  0x3cf64884bd60c818U, 0xbd0759aebd9497e7U, 0xbd7b4008bbadcb50U, 0xbcc5a656bcef07b6U,
  0xbc8cbb4c3d4f713aU, 0x3d3a257a3b53a020U, 0x3cfe755c3bd1bd70U, 0x3d4ebd5abd230130U,
  0xbc7646b8bd4b9308U, 0x3d176386bc9caf34U, 0xbd93be443ce03844U, 0x3da458f5bd895d18U,
  0xbd3317bb39bf9300U, 0x3cff13f4bd7e3b3eU, 0xbd9555d2bc9425d0U, 0xbcba2e06bc6b43e8U,
  0x3b59a2a0bcb25e96U, 0x3cbe37403c10cb80U, 0xbd0a30783c9dbf6cU, 0xbcb2c15c3d1a70aeU,
  0x3aaed9403d9de715U, 0x3d74b6da3d7b4b06U, 0x3d9543dbbd98de36U, 0xbd542ae8bb911550U,
  0x3d9a77553c546c80U, 0xbd1127c0bcc1b986U, 0x3d48302a3da9bafdU, 0x3d97dc853d03a8e6U,
  0x3cf66df4bcbf92c6U, 0xbd60d23ebd999580U, 0x3d94eccb3d957525U, 0xbcce22a03d912051U,
  0xbda339fe3bfb8100U, 0xbd042cd6bb0a27e0U, 0x3d5f2e3ebb809640U, 0x3ce3574c3c16a0b8U,
  0xbd7577a3bd42f618U, 0x3d824749bd20be43U, 0xbc28f748bda20730U, 0xbd8983e03c92fd94U,
  0x3bf659d03c785700U, 0x3daa8c6f3d3e222eU, 0xbce9d6363d7146f6U, 0xbd147eb63d2e4ffaU,
  0x3d910b89bca46c7cU, 0xbd9bea8bbceba0d0U, 0x3cd3241038dacc00U, 0xbb9bf0d03d31d9a2U,
  0x3d3724debd428333U, 0x3c0c0e78bc70bd28U, 0x3ce62c903cc9e740U, 0xbd4e03f03d2133a2U,
  0xbd0bfec8bd57d3fbU, 0x3d7230ba3d922fe7U, 0xbd0a5736bc5b3118U, 0x3d737b66bca5cd20U,
  0x3c012828bd6a16c0U, 0xbc1664083d38420aU, 0x3c9c137cbd735650U, 0x3d9574dd3da41c77U,
  0xbd36b7a6bcd495ccU, 0x3d856de93d3bafeaU, 0x3c903d603cfeaaf4U, 0x3cab11003d950ca7U,
  0x3d0df0c23d81444fU, 0xbc119db83d489982U, 0x3d99441dbcd905dcU, 0x3d06edaabc76dc08U,
  0x3cb15accbd111f4bU, 0x3c1d5d883d2f32caU, 0x3d059b32bd25c34eU, 0xbc9e769c3d191f6aU,
  0xbd5ab2763c9a144cU, 0x3d9de3153bed7330U, 0xbd8ab7d3baa56ac0U, 0xbcb36dccbd881bf4U,
  0xbd7051ae3da6dfc7U, 0xbd40f51bbd703556U, 0x3d9438d5bc939eacU, 0x3d7a7eb6bc918e20U,
  0xbd8634c03cf97134U, 0xbc296940bcf2d4fcU, 0xbc84701c3d16b02eU, 0x3d2e3a7ebd5fc2d3U,
  0x3c5c57603d26b750U, 0x3d8a988dbc78b360U, 0xbd0dbfd83d07713aU, 0x3d3f0f4a3d5554a6U,
  0xbd8e30f0bd7dff73U, 0xbd86beb3bd84247bU, 0xbd7b0c183da3df31U, 0x3d9ce413b9de4c00U,
  0x3baddbd0bbe23e80U, 0x3da76509bd4e11f6U, 0xbda2bb9cbd8e93e7U, 0x3cdc72543d47febeU,
  0xbd7e0bfbbd17cc78U, 0x3c722cc03d8f1effU, 0xbd9f30d8bd37e3aeU, 0xbd0c99eb3d1f705aU,
  0xbc45d0d83ccd4c8cU, 0xbc303b18bcc13160U, 0xbd70f436bd81466aU, 0x3cf0e6d0bd80cf1eU,
  0x3cda4cd4ba563600U, 0x3d07c108bd418f2eU, 0x3d057bb03b99c370U, 0xbd8273d23caef4e4U,
  0x3cd53c00bb4f1e80U, 0xbce53cf0bd5c7660U, 0xbd7ff6663c3e7840U, 0xbcdea88c3d75fe8aU,
  0xbd7d993b3d1ec95aU, 0xbd8c46a63da835e1U, 0x3d920ccb3d7d35f2U, 0x3d9130893d1faa12U,
  0x3d71164e3d30d982U, 0xbd3bc61ebda410eaU, 0xbd9ca4c83c5d5600U, 0xbd5c95463d9704b5U,
  0x3d8a55ddbd929327U, 0x3d996de53c7fd2f8U, 0xbbd798803cc183e4U, 0x3d4866423d83601bU,
  0x3ce9c6443c3be6a0U, 0xbca07b7cbda72d5eU, 0x3cb551f43a9fa8c0U, 0x3c1b2060bd810118U,
  0xbd715fe8bd92e916U, 0x3d55c6d6bd86f632U, 0x3d46700ebcec4b36U, 0xbd9c1c4ebd1e9c50U,
  0xbd4696dbbc0a9600U, 0x3d9777ad3d9203e9U, 0x3b918240bd4cfa78U, 0x3d8cb7abbd024df3U,
  0xbd8f9faa3d6024beU, 0xbda33dd23c701fa0U, 0x3cc048c0bb4a7ea0U, 0xbd5ddeabbd478d1eU,
  0xbd0b0d83bd575a76U, 0xbd2392f63cf8a310U, 0x3d9280913d4db3e6U, 0x3c29f588bc3ef6e0U,
  0xbc7c2700bd89df18U, 0xbd9c96df3d870299U, 0xbd76365b3d186d1eU, 0xbc73c668bd607098U,
  0xbd028848bcdc4b16U, 0x3d262cd63d5db01aU, 0xbce81d5cbd405776U, 0x3d97abf5bd8b7ce8U,
  0xbcabb9bc3d890625U, 0xbc189ba8bd64b9f8U, 0xbd03f490bda69f33U, 0xbd91df5e3b8c4170U,
  0xbd46c95ebd07aea8U, 0x3d4b41ba3c81a90cU, 0x3d602f06bd925510U, 0xbd3c79d63d165c12U,
  0x3d49aa2abcb5cbd0U, 0x3d835b89bda5d076U, 0xbd408b033c6b31e0U, 0x3d80ee993da643fdU,
  0xbda22684bd899663U, 0x3d3c73eebd513ceeU, 0xbc776f603da869cbU, 0x3d4e5c523d1ca3a2U,
  0xbda11bbebd55abfeU, 0xbd4bd6d3bcbc8cecU, 0x3a203780bd56c2d0U, 0x3d09c350bd294bebU,
  0xbda700c33ce52170U, 0xbd20b3763c9f47b0U, 0xbd3d05a33d772702U, 0xbc0480403d05ea30U,
  0x3d43c9b23cb091ecU, 0xbcb15b363c5eefc8U, 0x3d79ff2e3d8139f1U, 0x3c251088bcaf1d7cU,
  0x3cfb4324bd60e0feU, 0x3b5f2ee03d9b2555U, 0x3d8aa74f3d76164eU, 0x3c04e6e83d6f10f2U,
  0x3d2531c83bc3e7b0U, 0xbcbc5cfcbd75b7a6U, 0x3cab00cc3d8de0f5U, 0xbcc05300bd082c36U,
  0x3d6b338abcc4ae2cU, 0xbb9cca90bb5a4ea0U, 0x3da6181bbd87f943U, 0xbd4cd753bca9a950U,
  0xbc8c8b84bd801682U, 0xbc824994bd6967b6U, 0x3d582852bd9159dfU, 0xbc8552543d252f2eU,
  0xbd0e3c60bd8213caU, 0x3d6fee1e3d05e1b6U, 0x3d0fdc6e3cc8b794U, 0x3c24f280bc1618a8U,
  0x3d579af23d8155a7U, 0xbd0e2e633d915d31U, 0xbd932b88bd3c4153U, 0xbc97cfd03d1f0800U,
  0x3d2937b2bd6e0583U, 0xbbb211003d56c50aU, 0xbcf40d76bd17946bU, 0xbd15403e3d0f5da2U,
  0x3da336dd3d026eeaU, 0xbd4821debd9ecd9cU, 0xbd99c4dfbda1849aU, 0x3d822bad3d6cf046U,
  0xbc1f7f683c71b938U, 0xbba937303d494c72U, 0x3c3c3560bd053b10U, 0xbd9803743d1a8e00U,
  0xb9e01000bbdc4bf0U, 0xbc99cb543c868b84U, 0x3d46e552bd935166U, 0x3d34f7aa3d934dc3U,
  0x3d0019be3d95b1a1U, 0x3c8c01a0bae1fac0U, 0x3b5f37203d2c726aU, 0xbce13af63d9390d5U,
  0x3ca05fd43d67ad02U, 0x3bf34a903d408916U, 0x3bdfa18038f9e400U, 0x3beefd30bd58767eU,
  0xbcaa88903c7c7cd8U, 0x3d54a2febcb8966cU, 0xbd0322e33d284450U, 0x3cd3182cbd846982U,
  0x3cc42104bd6364c3U, 0xbc9bd4843d06d3a0U, 0x3d65602ebd2b8faeU, 0xbd8bedebbc9063b4U,
  0x3da431ed3ccf1994U, 0x3cc8cd2cbd49620eU, 0xbd9b7968bcdff72cU, 0xbd4f42403ca3cbf4U,
  0xbd6d0840bcc3f606U, 0xbd69855e3d96fc41U, 0xbc0d0f803ce6678cU, 0x3c811e4c3d78fbc2U,
  0x3d1ab0d63d960325U, 0xbd2ba5e6bc361d78U, 0x3d33fd0abd4fa8feU, 0xbc0ae948bd8a375eU,
  0xbda74f043d4bdc92U, 0x3da824fbbc395320U, 0xbd7058a6bc96a35cU, 0x3bc9e710bbbc9770U,
  0xbcadbd603d7a4c02U, 0x3d4b14063bf1bcf0U, 0x3d30d2223d71890aU, 0x3cfdee4cbcb68c20U,
  0xbd2af426bc297928U, 0x3da9c1a1bd9d284bU, 0xbc3628483d3acd36U, 0xbce0f4d03d291aaaU,
  0xbd86f02e3d230de2U, 0xbda01c6c3d25d4feU, 0x3d1faa1abd81b1c2U, 0xbba13330bb2ea480U,
  0x3d3ab8bebd407f5bU, 0x3d3ddb76bd77ce30U, 0xbc1e2988bcb51930U, 0xbaa26300bcc5f1e6U,
  0x3d31d84ebd95e5d7U, 0x3b753800bd55c0a6U, 0x3d3bfacabd9355b2U, 0xbcfbf5a0bce1886cU,
  0x3da674153c983924U, 0x3d4e644abcdba010U, 0xbcdfa9c0bd914858U, 0xbc81ba4c3d869b4fU,
  0x3c8f2a7c3d8b2589U, 0x3d20299e3ccc013cU, 0x3d4663123d8cb7f1U, 0xbd1ff2aebd4c2b66U,
  0x3d26ea62bc499d00U, 0x3d2fba9abd92de06U, 0xbcd31846bd8c3a47U, 0xbd0a9d833d9a47f3U,
  0xbbb09b80bcf19250U, 0xbb98cdd03c832ab4U, 0x3d857151bd76022bU, 0xbd663baebd43d448U,
  0xbd9cfdac3d28b8aeU, 0x3bb26af0bd47e356U, 0x3d83712bbd8dd3feU, 0x3d203a903d8809f9U,
  0x3d89d3e73d8287a1U, 0xbd79eafebd66f52bU, 0xbd387873bd20394bU, 0x3c998ed0bd9f340aU,
  0x3d67cd0abd781bf3U, 0xbc5d0318bd003f58U, 0xbd8ec45a3d901a81U, 0xbda6556e3b09ab60U,
  0x3c272440bcee5ad6U, 0xbd28b3fe3d98ad0fU, 0xbd7e0dbbbbc382c0U, 0xbc913674bd0127a8U,
  0xbca820f43d898b31U, 0xbd0b03c63b2400e0U, 0xbd6426e6bd4e4526U, 0x394a08003d8ad055U,
  0xbd9147663ca7f470U, 0x3b52af00bd0774b6U, 0xbd541563bd19ed58U, 0xbc8aeb4c3c4afac8U,
  0xbcbcc1e03ca1e884U, 0x3cdde9943d30c68aU, 0x3d0e658a3d4ca35aU, 0x3d4f4346bd4e8ed6U,
  0xbd84c61f3b6af4e0U, 0xbb70e7e03d329d22U, 0xbda3b6183d66a556U, 0x3d8699213cb29fdcU,
  0x3d25fd28bd94f250U, 0x3d879729bc2a4858U, 0x3d97723dbc5af5e8U, 0xbd72353bbd4573a0U,
  0xbd28c7063d74cdc6U, 0x3c6859f83da063d9U, 0x3d2d46e6bd9e7eb7U, 0xbd4df4b0bcb990c6U,
  0x3d6150a23d96599dU, 0x3d3fb316bcc0043cU, 0xbdaa206b3ce71600U, 0x3c718438bbac7910U,
  0x3da7d5e1bcd91a5cU, 0xbd691bb8bd0f4038U, 0xb9a8f9003ce60f74U, 0xbd6dd4033baf99f0U,
  0x3add52403d8144dfU, 0x3d66a0ee3cd6c840U, 0x3cdb6bdcbd9a739bU, 0x3d89812d3a8ae600U,
  0xba8ff300bcf75efcU, 0xbd061cdb3c2f6be8U, 0xbda3862e3d0b7ad8U, 0x3d14a300bb23a320U,
  0x3d84e5813d8af979U, 0x3d1e30c8bccd4b00U, 0xbd879ee8bd319328U, 0x3b24ee00bd9905daU,
  0xbd21a663bd703fbbU, 0x3d51469e3d9867c5U, 0x3c8a178cbcf9e2a6U, 0x3c8fc5d03c7f3708U,
  0xbd85aba3bd37b4a3U, 0x3d882effbd8698f2U, 0x3b6686e03d26044aU, 0x3cb66f40bd355f63U,
  0x3cf867343d59f362U, 0xbd18cbc0bc10a998U, 0x3b90d8d03cff9fa4U, 0xbd8a21273d39044aU,
  0xbd3d839e3d17f768U, 0x3d3bc896bd9b47d6U, 0xbc390b28bd0a21bbU, 0x3da19829bc731088U,
  0x3d0b52d83daa7495U, 0xbcd3d336bd8d8062U, 0x3cca6d3c3d8af4c1U, 0x3d81391fbd9fee6eU,
  0x3d1de5c0bcbb4de0U, 0xbd78eb683d3549f2U, 0xbc94d2043da7ce93U, 0x3ccfe44c3b3b1280U,
  0x3d9aed9fbc802374U, 0x3da9e5f5bc0e0dd8U, 0x3d1555483da710a5U, 0x3d9fc6c3bd28e3d3U,
  0xbd3961883d1d07eaU, 0xbd9f4894bd851c66U, 0x3da02ddbbd16e86eU, 0xbae8ac00bd5fd7d0U,
  0xbbd35710bd329caeU, 0x3d1c4d56bda83d93U, 0xbbeefd80bd8db6e6U, 0xbd049f80bc383c78U,
  0x3cb085303cc9e660U, 0x3d851f75bcabd310U, 0x3cb2f3343d84602dU, 0x3d5f4932bbed8410U,
  0x3d19f948bb0d0320U, 0xbd98e1d0bd83a2b8U, 0x3d96abbd3d922f15U, 0xbba065d03ca50b54U,
  0x3d8f6219bd575c06U, 0x3d0bd2a03cd7262cU, 0x3d9303e9bda031d7U, 0x3d10f6be3c27a680U,
  0xbd9bf4a83d9b8cfbU, 0x3d70a726bba5e750U, 0x3d9f106fbce6b260U, 0x3d3550b2bd981e7aU,
  0xbc62b2883d815511U, 0x3cb9626c3d825fbdU, 0x39a6b300bd75b118U, 0xbce14700bc81b54cU,
  0x3c0baa68bd4efae8U, 0xbd0fca36bd66ef9bU, 0x3d8ebf91bd7b606bU, 0xbcf088ccbcb2c086U,
  0xbafbf800bd94cf70U, 0x3d8d434b3caabe9cU, 0xbca6b214bda76596U, 0x3d838835bd97307bU,
  0x3d3e83a2ba552780U, 0xbd5fabd83d55745aU, 0x3c5c6f203c9fabf4U, 0x3da40cefbd3df728U,
  0x3d4cb13ebda21498U, 0x3d3b1f763d09265aU, 0xbc7abb583d2c485eU, 0xbc605080bd3282feU,
  0x3d95f6c7bd839e38U, 0x3cb0047c3d299c02U, 0xbd896097bd92ca8fU, 0xbd21f3a6bc8803c4U,
  0x3d1b9a26bd9e0158U, 0x3bd9e0b0ba20c780U, 0xbc1dea88bda0b238U, 0x3ccbbac03d9bdad7U,
  0x3d8173c5bd395a3eU, 0xbb6ca4803c12fee0U, 0x3ac46f40bda1bf1cU, 0x3bcdea70bca6e54cU,
  0x3d86b6c13d8e64cbU, 0x3ce0dc443d748c3aU, 0xbda897f8bcfce36cU, 0xbc50c3b8bd456dd0U,
  0x3c83baec3c478798U, 0xbd61bc133d64dacaU, 0xbd7465283bf7d130U, 0xbda77dab3be951d0U,
  0xbd0863f03d8cfdcdU, 0xbda14fc73d503662U, 0xbaec0440bcbc3d4cU, 0x3c7738603ca64600U,
  0x3d59414a3d7f66aaU, 0x3d6ed152bcfb0636U, 0xbd162df03d0dd1c2U, 0x3c117b28bd995a57U,
  0x3d95d0ddbd4e6093U, 0xbd918033bd98c1d6U, 0x3c36f178bd7fce68U, 0xbcc81c963ca789e4U,
  0x3d6ca8c6bd964572U, 0x3d0f92263d278df0U, 0x3d3cb7febd81c7e4U, 0x3d76838a3ca43e6cU,
  0xbb35bde0bc020dc8U, 0x3c4187c8bd31031bU, 0x3d9c0045bd599d30U, 0x3cdda5143d9f9bcfU,
  0xbc520b88bc867cecU, 0x3ce266bcbd8b0316U, 0x3d9d30d93da9e903U, 0xbd73e8833c7293e0U,
  0xbc846e70bce5a590U, 0xbd3c0fb8bcdb9610U, 0x3c74d060bd43169eU, 0xbcc40b463d89c441U,
  0x3c655a203d8fa463U, 0x3d1e89b8bca8fdb4U, 0xbced86dcbcf510b0U, 0xbcfddc10bd88babfU,
  0xbd72f0a3bd42ad00U, 0xbd9401423d89dd31U, 0x3d2b07b63d9c785dU, 0xbd813c2a3c1d0b58U,
  0x3d8cfe533d4941faU, 0x3d300a3a3c5a4ec0U, 0x3d782316bc9769bcU, 0x3c15cd603d266800U,
  0xbcf4c140bd4ed676U, 0x3cf94594bd2f8de0U, 0x3cf4e7103d87e93dU, 0xbda200d63ce9a864U,
  0x3d19326abd496370U, 0x3c6d24c03d8b582fU, 0xbbc37a80bd5927b6U, 0x3cfd47b4bd019820U,
  0x3d89cedb3d6b7a72U, 0xbd64dba3bd3d7c83U, 0x3d89cd513ca6069cU, 0x3d97a089bda39ed0U,
  0xbc080fe0bd705b08U, 0x3d8a26abbccebd4cU, 0xb9f15800bcde9490U, 0xbcdd583cbd1036bbU,
  0x3c84c4f4bd6f4f5eU, 0xbd8995c23c710000U, 0x3c27a398bc0abe80U, 0x3cc6310cbd835603U,
  0x3c9dc4a43d2d66baU, 0xbd9570303d856eedU, 0x3d9e1fd1bda0f3f8U, 0xbc03b2083d44b3c2U,
  0xbd71ded33d87d879U, 0xbca04c1cbd52303bU, 0x3d7442b63ca36394U, 0xbd4875203d2489e6U,
  0x3d8531fd3d958825U, 0xbd8a0d6e3da6fc95U, 0x3d5a79fa3caaf63cU, 0xbd8ecf873d4a754aU,
  0x3bc34a803c936f74U, 0x3d8451693ba18480U, 0xbd183d103d590892U, 0xbc8167e03cb2fe40U,
  0x3d1131d0bd06c3dbU, 0xbd3d3200bc6e9a48U, 0xbd0103b63d02da86U, 0xbc4047f8bcb8d0ecU,
  0xbccf9a803d83881dU, 0x3d844eb93d5deeeaU, 0x3c6e38a8bc8f5de0U, 0xbcee5546bd8f625bU,
  0xbce396f6bda11beaU, 0xbd4fd296b9405200U, 0x3d7082ca3ca6e740U, 0xbd933bd33c3c8d00U,
  0x3cea9be43da0557dU, 0xbd898e1abc86319cU, 0x3da4bb3fbd47d258U, 0xbc67d9f83c42b008U,
  0xbc9401f43d2f332aU, 0x3d5b936abd2a0478U, 0x3d1c9d00bd7e3e06U, 0x3d7381723d89de27U,
  0xbd8d163abd7480c8U, 0x3d94017b3d984b8bU, 0xbd8b562cbd9cb287U, 0x3d9092c93d0aeaa8U,
  0xbda2a5233da6ffb9U, 0xbc96bdb43d0e280eU, 0xbd33b9debc949b00U, 0x3c565438bc467760U,
  0xbd9bd6903d28caaeU, 0xbc7f76403d773746U, 0xbd4c4f103baa7950U, 0x3da10203bd17e42eU,
  0x3d85b5b93da9330dU, 0xbd1e1da0bce88f60U, 0x3b912900bd2d4a56U, 0xbc53bc18ba991900U,
  0xbc1bfa18bd9695d3U, 0x3c90a4c0bce93be6U, 0x3ce034703c3fd668U, 0x3d7e5adabc17b6d8U,
  0xbcca9bcc3c4d9280U, 0xbd9947003d2eae26U, 0xbd7ec736bc6ffed8U, 0x3d050c5a3cd4af3cU,
  0x3da700e93cff8520U, 0x3da2e51f3d904c23U, 0xbd209c303d69fda2U, 0xbc3d58f83da83e0fU,
  0xbd886c743d564076U, 0x3c6dce40bd1b72a3U, 0xbd89acdcbd0ec476U, 0xbc2e7bd83da831fdU,
  0x3d497302bd64ce88U, 0xbd1b5de3bd62b91eU, 0xbd82a447bc47fc28U, 0xbc396660bb9385d0U,
  0xbccb8f60bc00fad8U, 0x3ba34200bd864c44U, 0x3d39c70e3d97b88dU, 0xbd9ebdcb3caa1bb4U,
  0xbd2652cbbd8d31e7U, 0xbbd1ae00bd883b10U, 0xbcf851f63d9f34cdU, 0xbd2001e6bca1d7acU,
  0xbd8eb3633d51a316U, 0xbd6a5070bd1be473U, 0xbc95f5d4bd4c9126U, 0x3d44debe3ba2ca90U,
  0xbd5635283da72b61U, 0x382d98003c1b23f8U, 0x3c4cda28bd6731deU, 0x3da74965bd1460c6U,
  0xbd7fc9a6bce20200U, 0xbb7c23a03c561ae0U, 0x3b82cdf03d0f92b2U, 0xbd3940a03d87602fU,
  0x3bb4a730bba85190U, 0x3d961e41bda99047U, 0x3d0724be3d96a701U, 0xbda8557f3d245426U,
  0xbd6b9a96bb9d4170U, 0xbd78d1533ca1bb64U, 0x3cbfb830bcc7deccU, 0x3ce86f50bcf51b80U,
  0xbd14c1b63d9649b5U, 0xbd834abb3d91d67bU, 0xbd81e7a4bce481b6U, 0x3d388d5a3c701868U,
  0x3a67c880bc56d0e8U, 0x3d3eff2abd8a27eeU, 0xbd687d333c19da48U, 0xbda1bec2bc8cc014U,
  0x3cbe33f0bca0c670U, 0x3cd7be00bc41c858U, 0x3d465172bcba8b00U, 0x3d2997fa3cf48f5cU,
  0x3c975a4cbd7e79beU, 0x3cec37f0bd191ee6U, 0x3ba152703d905881U, 0xbd8327ac3d7dd37eU,
  0x3d6c3feabd412a30U, 0x3d91921dbd8b4a16U, 0x3c85483c3d7c1e7aU, 0x3d6f4b16bce13ad0U,
  0x3d112926bd82354aU, 0xbda4a5afbd8ad313U, 0xbc5b5ed83bbbce50U, 0xbd62358b3d44331aU,
  0xbd39935ebd394f73U, 0x3ca4e0ecbd7f44deU, 0xbd8bad5e3c69e0a0U, 0xbc89a504bcad4ed0U,
  0x3d84a229bc09b2b8U, 0xbd258e633d74e1ceU, 0xbd55a2b3bd5860d8U, 0x3d87efdbbda64192U,
  0x3d8920f5bd9d4320U, 0xbd6349a0bd9efb2cU, 0xbd7b91e03c90ecacU, 0x3d0d59583d6e7b42U,
  0x3d216290bcade5f6U, 0x3d83f3b9bd9d60eaU, 0x3d2983fe3c53e048U, 0xbd719b9ebda53268U,
  0xbd94e88c3d19d97aU, 0xbd86ab18bda03982U, 0xbd7a5196bd2cdbebU, 0xbc865124bd5c62a0U,
  0x3d0604603cfcbd94U, 0x3cc58eacbd1b0c13U, 0xbd96fe1c3d3ab08aU, 0x3b515800bcecdf3cU,
  0xbd103e5ebc6a9818U, 0xbd5ef2f33bdc7cb0U, 0x3ce1211cbd0f27b0U, 0xbbdd6e40bd24867eU,
  0xbc3f91003d846e9bU, 0xbd7910fe3d0f0192U, 0xbd85df833bfa2710U, 0xba94ef403d93518fU,
  0xbcd6e5dcbd1bedeeU, 0x3c0f6a483da204a9U, 0x3d4c06de3d8b8d21U, 0x3d9c76c53cad9540U,
  0xbd1ecb703da30023U, 0x3c8b2740bd45831bU, 0xbd3854633cd9761cU, 0xbd9411fb3c4f7a20U,
  0xbd8e1a9cbc17d168U, 0xbd950d07ba909bc0U, 0x3cc3b8fc3c19c348U, 0xbc588a08bcbbaf20U,
  0x3d88e745bd4b0ab0U, 0x3d97223bbd3a686bU, 0x3bddac903d1bb04aU, 0xbd2c70e6bd6009deU,
  0xbd6e8ff63d40e356U, 0x3d3f9d6abd7fa3b8U, 0xbd9df51c3d55b6a2U, 0xbd89b13bbd683348U,
  0x3cee9b843d2ddc6aU, 0xbd9aa3533da5214dU, 0x3c3a4b783da66471U, 0xbd68e386bd36a618U,
  0xbbc132b03d8794bdU, 0x3c040ac83d0c8dcaU, 0x3c9f51603d5c983eU, 0xbd9216433d9e1fafU,
  0x3d7f320a3b19ca00U, 0xbd17ade0ba0b3400U, 0xbd6ac1f8bc6e36d8U, 0xbc85fd903d253262U,
  0x3d8ff6e3bcdf3dd0U, 0x3d9591a93d713bfeU, 0x3d92d7a3bbb2ecf0U, 0x3ca209503d46badaU,
  0x3cc1fd803d383592U, 0xbd23c82bbca7c2acU, 0x3d8ad2f9bd3a46feU, 0xbd90fe773d73ec2aU,
  0x3da0d999bd85f98bU, 0xbd8567fb3d925613U, 0x3cdb06f0bca64dc4U, 0x3d5009a63d6ce976U,
  0xbd57273ebcc144ccU, 0x3cf7c6043c7a8dc8U, 0x3d6bbb7abd5e4c7bU, 0x3c93e6e0bd2dc4beU,
  0xbd1d95333c53df80U, 0x3c73bd80bd7c57aeU, 0xbd93b9fabd850254U, 0xbd80d4463d0cb6f8U,
  0xbd00a20b3a9e1340U, 0xbcadb5dcbd105493U, 0x3ced264c3b8e43d0U, 0x3d8d38ddbd13a5a8U,
  0x3ce35f94bd31ccc6U, 0xbd8497cbbda648d4U, 0xbda3f2be3da1dfbbU, 0xbd33a75b3b4f9600U,
  0xbd20fae33d41d212U, 0x3990df003d6845d2U, 0xbd3c04f83cb05f0cU, 0xbd7316b0bd96e9a8U,
  0xbd97814fbcdc8116U, 0x3c8d68603d64244eU, 0x3d93a7213cf22f74U, 0xbd50106b3d2c0c0aU,
  0xbd849596bcd7fbd0U, 0xbd4138a8bda44b2eU, 0xbcaafd803c3d7ad8U, 0xbd00a2003d75917eU,
  0xbd0ada2e3d72b83aU, 0x3d48c702bd7d8373U, 0xbda7e904bda99da7U, 0x3d85ac093d9416c3U,
  0x3ca5a0ec3d825b41U, 0x3d0ed06a3d806621U, 0x3c8441fcb95ce600U, 0xbc845c443d87e369U,
  0x3d1d4faabd16820bU, 0x3b9b4af0bd83168bU, 0xbd0602b3bcfd6720U, 0xbd79d0d63bcb2e10U,
  0x3c4354e0bc6efd00U, 0x3d9fd095bc4e97b8U, 0xbca9fa443da114f1U, 0x3d3ac2323cd85f2cU,
  0xbca3bf4c3d233ba0U, 0x3d75aeb63d64f8c2U, 0xbc8434f0bd87fe2eU, 0x3cec5ee0bd1a1bd3U,
  0xbd56c3d03d994129U, 0x3d07641e37af7000U, 0xbd9c2a13bd85d8bcU, 0x3da324c93d8a4829U,
  0x3c94ac003d89ccd1U, 0x3cdd28cc3c458458U, 0x3ca7bebc3d1ab9c6U, 0xbba193f0bd9e65bcU,
  0xbd948ae4bad08f00U, 0x3d216ec0bc732928U, 0xbb9926903d17c8e8U, 0xbd129c5bbd297348U,
  0xbbb62c10bab44100U, 0x3c1cf8e03d6e96e2U, 0xbd4497503da1529dU, 0x3d1886623d668802U,
  0xbd81385cbcf1d64cU, 0xbd131443bc96c1dcU, 0xbcc59d603d11c3f2U, 0x3ce6d08c3d56088eU,
  0x3a897740bafb79c0U, 0xbd8ed3ae3d0cc6c2U, 0xbd2285fb3d9f1855U, 0x3b626380bcdcbbc6U,
  0xbb43f2603d350dbaU, 0x3d5568223da50e2fU, 0xbd948bf03d77856aU, 0xbd9ecee4bd94569cU,
  0x3d89a3b7bc6ab100U, 0xbd67d973bd4436d8U, 0xbbcab5003d2cc12aU, 0x3da94219bbaaebd0U,
  0x3bb1e200bd9cb970U, 0x3d8849bfbda1e434U, 0xbd9bedc2bd102728U, 0xbb94a5d0bce40150U,
  0x3d75f0b2bd74e888U, 0xbcef40f6bd8b299cU, 0x3c837e40bc9eac00U, 0x3ceabc64bcf0ca3cU,
  0x3d04b5663c5039a0U, 0x3d680d523cfc3530U, 0xbcc697ecbc4cdbe8U, 0x3cbb3a3c3cc06ba0U,
  0xbd596c9ebd7ca483U, 0x3d4a022a3d974817U, 0xbcd79ca03d832175U, 0xbd57d8203c99e7b0U,
  0x3d5384423c405e88U, 0xbc8db8acbbd5b540U, 0xbda3c94fbae25d40U, 0x3c1edae8bb04dd60U,
  0xbd3359333c4e5f00U, 0xbb9f1e003d461f22U, 0xbd8ea8b43d2f1042U, 0xbd7280fe3d6adc3eU,
  0x3d5031e23d694dbeU, 0x3b746a60bc5a23c0U, 0xbda8eabfbd31a738U, 0x3d7f589abda93b90U,
  0xbcf60e3cbd315b06U, 0xbcc1d6b03d750b3aU, 0xbd76f6c3bc7d0638U, 0x3d58e48abd63e86bU,
  0xbcdbf3963d9ca1b5U, 0xbd9ee6333d50edeaU, 0xbd950b143d9e3cb9U, 0xbc0125f8bd7b1046U,
  0xbd1728563da44f7bU, 0xbcba5c663da18f57U, 0xbd5d7996bcc5153cU, 0xbbc686503d5dd182U,
  0xb97e7200bcb228d6U, 0xbd8c8274bd7cf636U, 0xbd3faef33d6db0d6U, 0xbd361323bd7f44f0U,
  0x3da5cfcdbd931282U, 0xbd48b0e03d92f753U, 0x3ce20e003da6e875U, 0x3d75d8823d893133U,
  0x3d2f856e3b8d1d80U, 0xbd52ede0bcf7baecU, 0x3d8759cbbbce87b0U, 0xbc2a02283d9f6469U,
  0x3d8adf1dbd83bc83U, 0x3ccf6fb4bc675720U, 0xbc985274bd8d02b2U, 0xbced099cbd7ab98eU,
  0xbca462a4bd9ea61bU, 0xbce40100bd99984bU, 0x3c8046c4bd96bf8aU, 0xbd33902b3d934d39U,
  0x3d0ed38e3b58f860U, 0xbaf9abc0bd7d031bU, 0xbd84a71b3d5bae7aU, 0x3cbf6f6c3b745ee0U,
  0xbd83fd6ebda427cbU, 0xbbc2d250bd42d5c3U, 0xbd97dd543ce7d310U, 0x3bb1c1d0bd880fafU,
  0x3d875b813d630e52U, 0xbc842c94bd11d5e3U, 0xbd885aaa3d6e4e42U, 0xbd3e00cb3d0002c0U,
  0x3d8564913ce49d10U, 0xbd3b65dbbd92433bU, 0x3d1d3e683b976a30U, 0xbd574408bd52f10eU,
  0x3cc2012cbc98e9b0U, 0xbd5e38a8bbb64210U, 0xbd935bfe3d79daaaU, 0xbd20aa2bbda2292bU,
  0xbd8a49873cf80664U, 0xbd7e30de3ca1b330U, 0x3d60223abd6bffe0U, 0xbd581a883d092208U,
  0x3ccad140bcb468ecU, 0xbc3abab8bce17fa0U, 0xbd8cb53b3da24b57U, 0x3d9e9eadbc8b2054U,
  0x399307003d9d5549U, 0xbda5962fbcc82c76U, 0xbda0ac2cbd407f46U, 0x3da2d86dbd28a220U,
  0xbcc1f64cbd9ad11eU, 0xbd04f2503c5d6658U, 0xbd95bb273b0c7aa0U, 0x39fec300bd83d373U,
  0x3c9832fc3d4354baU, 0x3d8f69693d9a308dU, 0xbd6f5fbe3d59e5a2U, 0x3b00c9a0bbc25290U,
  0xbcb7936c3c04e008U, 0x3cfd440cbce7d7b0U, 0xbd08b8303cec42c0U, 0x3cbf4c403c894bb0U,
  0xbda04db73ca40f20U, 0xbcdbad8cbd1d8c5bU, 0xbd93ed36bd177960U, 0x3d6faef23cbaf424U,
  0x3d200b88bd26e648U, 0x3c545de03d5c2822U, 0xbd45739b3d08feeaU, 0x3d960c79bc2cf498U,
  0x3cab848cbd0e11feU, 0x3c043c603d9ea98dU, 0x3d54193ebbd3b840U, 0x3d340dcabd569480U,
  0x3d72f8f2bda2fcc8U, 0xb9df6d00ba813740U, 0x3d78a6c6bd239b90U, 0x3d36d81a3d9f56a9U,
  0x3d361106bd3057d6U, 0xbd8ad4733c45e798U, 0x3cd6f6343c4adcc0U, 0xbd989fa03d81d8cfU,
  0xbce5c2563d22d31aU, 0xbcb309763c776f80U, 0xbd66459b3d39dd46U, 0x3c6d1100bcfc55b0U,
  0x3d4a0832bb475de0U, 0xbd99c5a33d8ff84bU, 0x3ca26060bc93ac9cU, 0xbda956db3d43c942U,
  0xbd61a8463c3f01c8U, 0xbd2c782b3d0730b8U, 0xbd65428bbd18923bU, 0xbcf9f14cbd0c0766U,
  0x3c1091583da4388dU, 0xbd7fd95e3d0a928eU, 0x3d7d47923daa471fU, 0xbd4c86a03d986d9fU,
  0xbd3326a83c687480U, 0xbd8b35963d1c9faaU, 0x3ca911a43c270a40U, 0x3da17f1f3d6c092aU,
  0x3d2cc4b2bd4c9020U, 0xbd880e47bd8cd83aU, 0xbd861652bd30f8dbU, 0xbd5599ee3d804d0fU,
  0xbd3536f03cb7d560U, 0x3c95795c3ba20a40U, 0x3d30d652bd84dfb6U, 0x3d5cd5a63d7c880aU,
  0x3bae10503d924621U, 0xbca1d3243cebf4f0U, 0x3d0d51e2bcff17a0U, 0x3d4b38dabcbca6bcU,
  0xbd41e7583ce87f90U, 0x3d91362d3d82c505U, 0x3d76254abd90d592U, 0xbda9e8babd657c9bU,
  0x3d75352ebd310a9bU, 0x3c8abde0bcf35536U, 0xbb584600bb91da30U, 0xbd703e963d320ae6U,
  0xbd6da640bd81946cU, 0x3d82644bbd9d4337U, 0x3d440e9a3cff9e6cU, 0xbb1d5420bc7329e0U,
  0x3d5f3c62bd9511e3U, 0x3cec07043d54f1aaU, 0xbcf92966bd03e6cbU, 0x3d495ba63cada8f0U,
  0xbd010d2ebc81d040U, 0xbd3f4818bc4c3a28U, 0x3d1e7a78bd6e329bU, 0x3d392db2bca6dac4U,
  0xbd97ab463d198308U, 0xbd8018923c6a0128U, 0xbd1433b33d5ff70aU, 0xbc5f9858bda02617U,
  0x3d0698ea3da021a5U, 0xbd9f5487bc62c398U, 0x3d368b223d1b8156U, 0xbc2c02183d36bc96U,
  0xbd15fd18bda64c54U, 0x3d283352bb651e60U, 0x3cb36760bd193253U, 0xbcde09cc3d8a147bU,
  0xbd1fedfe3d8df4dfU, 0x3da71f2dbd9e2acaU, 0x3d0d2c20bbf7a7f0U, 0xbd8aed563d5bb3c6U,
  0x3ce24540bd81f008U, 0xbd27226b3cd58134U, 0xbd43cb43bbcb5e10U, 0xbd5dbce0bc0654a8U,
  0xbd5407debd40d748U, 0xbdaa15f0bc9d7010U, 0xbca6d73c3d7f327eU, 0x3d682232bd3cce20U,
  0xbd1027ce3d1464e2U, 0x3d943ded3c6512a0U, 0x3c9442b4bc0efc28U, 0xbb721a60bda89a53U,
  0xbc3a3578bd299370U, 0x3d94306fbd55f8a6U, 0x3d1010a6bd8c0b3bU, 0xbab914003d8fe355U,
  0xbd19eca03cf432f0U, 0xbceaa7e63b9c9200U, 0xbd12faa6bd80e312U, 0xbd91f30b3d7e233aU,
  0x3d6b8a723d8722ebU, 0xbda20d383d1ac22eU, 0xbd422ef3bd801203U, 0x3d2564c0bbcda050U,
  0x3c81de30bd88a586U, 0x3d45a386bb0b37e0U, 0xbca1b84c3d1e8abeU, 0x3d0b6ad6ba7cbd80U,
  0x3c203da0bd47d1c0U, 0xbd540126bd301083U, 0xbd6255c6bd176c48U, 0xbd96a2873d93f681U,
  0x3d8ffd6f3da24b45U, 0x3d67141e3da5073dU, 0xbca84f7cbd96bfcbU, 0xbd98c20abc530978U,
  0xbcef39163d2a6d80U, 0xbd09b2163d9fe359U, 0xbd5beafb3d6d86f6U, 0x3d1651683d85ddfdU,
  0x3d1bac88bd303e4bU, 0xbd9449b4bda1362bU, 0x3d51ac563d0bbc66U, 0x3d3cfafabd0ff9e6U,
  0x3d181ed8bc81f680U, 0xbceab6403cfe348cU, 0x3ad6c6c03c663c98U, 0x3d36534a3bb75e70U,
  0x3d1a4852bd853d0aU, 0xbd5be2a8ba85cd40U, 0x3da416bd3d176bbaU, 0xbcef2e963d23692aU,
  0xbd90c7bb3c127748U, 0xbd3e6386bbcfe7d0U, 0xbc31ca80bc82b800U, 0x3cf7a59c3d9941fdU,
  0xbd88094cbd163093U, 0xbd3e59d33d73cc92U, 0xbcb210803d466846U, 0xbcbf9a7cbb9c4590U,
  0xbc4914683d7c822aU, 0x3d050bdebd1aa5feU, 0xbcee7af63daa3a41U, 0xbd533206bd21b5cbU,
  0x3d8aabbdbd26a060U, 0x3d69be2e3d61b2faU, 0x3d3cd946bd566cebU, 0xbc887a30ba638c00U,
  0x3c4a9c80bc272198U, 0xbcfdc3f0bd5ee6d8U, 0xbd1113903d64569aU, 0x3d4cd182bcc72e50U,
  0xbda630eaba1aba80U, 0xbd7034c3bd52db4bU, 0x3d3b0eba3d932343U, 0x3d37b93a3da38ea7U,
  0x3cb776dcbda306caU, 0xbd5545f33d60aa52U, 0x3d5e1b9a3d187906U, 0xbce0c716bda8fd5cU,
  0x3c5b71483995ad00U, 0xbd05a3abbd89263fU, 0xbd0441283c9617bcU, 0x3c944cd4bc987000U,
  0x3cec47dc3d377346U, 0xbd1b4e583d58bbb2U, 0xbd85786fbcaab820U, 0x3c433c983cd05e54U,
  0x3d23f0523ca9c99cU, 0xbbab4b903bd38340U, 0x3d834671bd783656U, 0x3ce6a4f43cc91c44U,
  0xbb8b9b803cf84b94U, 0xbd2cd473bc9b2e54U, 0xbda9de323d93b247U, 0x3d7f7d72bc71a248U,
  0xbd1af1eebcc65ff6U, 0xbd86fe3e3c74ebc0U, 0x3d1233e2bce72ae6U, 0x3c27ce28bd7e542bU,
  0x3d1facf83d4f483aU, 0xbc76ecf83d48047aU, 0xbcc5957c3d08d536U, 0xba16bc00bd398ce8U,
  0xbc7982003d8ab7adU, 0xbce64df03ccb5ed0U, 0xbd99e1103d5beab6U, 0x3cd39f803bf0f650U,
  0x3bc6c430bd71e90bU, 0x3da5eaad3d9348b9U, 0xbd29aacbbd41a41bU, 0x3d1ec98abd917fcfU,
  0x3c9cd09c3d8bdd57U, 0xbcbb6406bc75a798U, 0x3d41289a3cdee3f0U, 0x3d35497ebc7c6fa0U,
  0x3d98f3bd3da46c33U, 0x3d3703f6bd67b566U, 0x3ba125903d3eda0aU, 0xbd35cb0e3c611a80U,
  0x3d6bc19e3cd4dc84U, 0xbd94b6983cd6e990U, 0x3ce59324bcce5bc6U, 0xbd37a3003d147ab0U,
  0xbd339cb3bd1fe1e8U, 0x3d3e6ab23d98ca89U, 0x3a0ae3803c4d9780U, 0x3d992957bd8b56e6U,
  0x3cbe817cb9555200U, 0x3d27f726bd63059bU, 0xbd11a546bbf90640U, 0xbce9ab76bd324353U,
  0x3d5725d6bd83a802U, 0xbcb2c070bd9993bbU, 0x3d28ac403d44fe2aU, 0x3d8c5bcdbda88ec8U,
  0xbd2cd8763daa380fU, 0x3d709f623ac8b900U, 0xbd970d46bd46c5ebU, 0x3d2bf622bd9c891cU,
  0x3b8309b03d87003dU, 0x3d2feaa2bd89dd4eU, 0xbd4605a0bda68f1aU, 0xbcfbcbc63d442c5aU,
  0xbd223e063d84a785U, 0xbc50b940bc184620U, 0x3c71af98bce6e16cU, 0xbcccaf763d5c6002U,
  0x3d5096ee3d46255aU, 0x39f9c9003c4fda40U, 0xbd007c3bbd3046d8U, 0xbd094c9bbc1e32e0U,
  0xbd44407b3c940150U, 0x3c5522483cd8cad4U, 0x3cb6cfbcbdaa3cb4U, 0x3d7bec323d8189a5U,
  0x3d44da0abd9238d8U, 0xbd8dac33bd8ffcd0U, 0x3d4c838abca60ac4U, 0x3c3302483d84d401U,
  0xbcb380f6bd970157U, 0x3b37ba60bd011eb6U, 0x3d6272763d0c95b6U, 0x3c579440bd824cceU,
  0xbc822c1c3d8e621dU, 0x3b6a42a03da4d855U, 0x3d378136bd49b2d0U, 0x3c1ed6f8bbc87370U,
  0x3d50e54ebd3bd69bU, 0xbc97b8b43a7a4a00U, 0x3d8c75a5bd720fd0U, 0xbd9226e83c485a78U,
  0xbc07e738bca2a92cU, 0xbd05f4483cc636e4U, 0xbd6c30de3d18dfc8U, 0xbd77211bbd80bc40U,
  0x3cba7cd4bd1e7563U, 0x3d8bffc33d941665U, 0x3d153d003d55608eU, 0xbd88bbc8bd92c636U,
  0xbd09959ebd7cb4ceU, 0x3da941133d98753dU, 0xbd54ea7e3cf8ba84U, 0xbd418ef33c87d8f4U,
  0x3ca84e7cbc1ad638U, 0x3d21e728bd62848eU, 0xbd90783abd065dc0U, 0x3d2fc0b2bd2021d8U,
  0x3d8b8f8dbd9de308U, 0x3da5bd2d3bbf06b0U, 0xbd45be03bbb24070U, 0xbd1cf1763d4e0e1aU,
  0x3cc04b10bbb84b40U, 0xbd930c0fbda68927U, 0x3d561c8ebb02a100U, 0x3d4e580abda5fd73U,
  0x3c0d0160bd94c317U, 0x3d4cab523952aa00U, 0xbbc027b03d127902U, 0xbc293fa8bd79d8abU,
  0xbc8f1784bd2c2950U, 0xbc83f6c4bd2c25b0U, 0x3d5d13023d0d48c8U, 0x3cc33b5c3d6d8802U,
  0xbcbffa3cbd066590U, 0xba1ba600bd0b2fe8U, 0x3d25c528bd5234b0U, 0x3ce4e4e43d62bcb2U,
  0x3ba17710bcef477cU, 0x3c251f883d6b4a2aU, 0x3d9712753d8773c1U, 0x3d1009ba3bc80610U,
  0xbcfcd426bc879b3cU, 0x3cc07bcc3da6e5a3U, 0xbc761008bd55f036U, 0x3d8865993d706ebeU,
  0x3cd250d0bd67b500U, 0x3c3980a0bd8930b3U, 0xbd81f516bd4dbdeeU, 0xbd9fa12a3cf2bc74U,
  0xbc6242e0bc3c54a0U, 0xbd30b708bd9d8ec8U, 0xbc97e874bd02e288U, 0x3d5bfdbabd308c8bU,
  0xbd2ea95e3d5ef9b2U, 0xbd3a02f33d164bc6U, 0x3d11dfc8badde700U, 0xbd5161403d984a45U,
  0xbcc43f1c3d5373f6U, 0x3d35a7a6bd25bd3eU, 0xbb7b1420bcf3d3f6U, 0x3cb12834bc7b6a88U,
  0x3d66801e3da27c45U, 0x3c9a2e94bd06280eU, 0xbcb8eb66baee7c00U, 0x3b24e9e03d539c8aU,
  0x3d9520653cd824f0U, 0x3d4303da3d0da7b2U, 0x3c878f9cbd89c9deU, 0xbd965f83bd8dcbbbU,
  0x3c516978bc0fe8e8U, 0x3d14ea903d56a48aU, 0x3d1f175ebd53f0deU, 0x3b9e19503d6ef90aU,
  0xb9945c00bd9efa27U, 0x3c021c283d368136U, 0xbd9aa0e63d08ff40U, 0xbd9cb6bebd595046U,
  0x3c3670d83d15303eU, 0x3cf6f2803cb1498cU, 0x3c570eb8bcc6d02cU, 0x3b0869003cdfaa84U,
  0xbbf0e300bc9d22b0U, 0xbccda190bd8c345fU, 0xbcbdc6203c8121c0U, 0xbd410f503c972f00U,
  0x3d97888fbcb2c916U, 0x3d956015b9a57800U, 0x3ce5e424bcbb60bcU, 0x3af597403da16781U,
  0xbd83a3d7bcfc7fc6U, 0x3c7850c83d2caaa2U, 0xbd8cce72bd070dceU, 0xbd91ce82bcd97bdcU,
  0xbd93bd24bd337a86U, 0xbda683403d414c1eU, 0x3d2ff69e3d7ef156U, 0xbd0f107bbd3fa068U,
  0xbd8419b4bda9642aU, 0xbd67d066bcf1e970U, 0x3d72cdda3d2ff542U, 0xbda82120bc68ace0U,
  0xbd738c26bccc29f0U, 0x3d9b12b5bd8c6d07U, 0x3d606f0abd5fa9b3U, 0xbb6e0e203d02d952U,
  0xbcd53710bd26ca2bU, 0x3d83a6093d5f370aU, 0x3ba02c30bcbac8a0U, 0x3b9bef80bb025760U,
  0xba7d0480bce5685cU, 0xbc0a8e20bd6b6a9eU, 0x3d8712d53809b800U, 0x3d907171bc0f6fa8U,
  0xbd861d143d3197d6U, 0x3da789c93cbb1cfcU, 0xbd099f003d967c19U, 0xbd06ea633d83e01fU,
  0x3da80f453c2f7240U, 0xbd67cbbe3c289678U, 0xbd6eabde3da0c7f5U, 0xbb9ac5403d4cf41aU,
  0xbd4b8f90bb186580U, 0xb809a0003d056d62U, 0x3c771c78bda39c5cU, 0x3d9299253ceed21cU,
  0xbd2be42ebc3c05b8U, 0xbd6d9253bca8d0ccU, 0x3d1d29b23c8115f4U, 0x3d5fb27abb9e0af0U,
  0x3d3522ca3cc4b9d0U, 0xbd7e810b3c0f8218U, 0xbd9fc746bcefe366U, 0x3d8b1b673d9417f5U,
  0xbc9c3064bd1b9b8eU, 0xbd16be5bbcbe36a0U, 0x3b7235203da49c7dU, 0xbd86981f3d3fe70aU,
  0xbc153c883d6ecc7aU, 0xbd35c5cbbcbe656cU, 0x3cf9339cbc5507e0U, 0xbd55e2a0bd939c88U,
  0x3d41a2f63cdb1684U, 0x3ceaa750bd82e613U, 0xbd71dec63da2d28dU, 0xbca57dec3d8a7b49U,
  0x3d63b61ebd1c0646U, 0x3d83dcd1bd252a80U, 0x3d20fd6a3c820510U, 0xbca88210bd1d4888U,
  0xbd7f4088bd7db5a8U, 0x3d519ada3bafcf00U, 0x3c194d983d8d52ffU, 0x3cceb7cc3d38dc3eU,
  0x3d8eb0b9bda3dd50U, 0xbd0f390ebd1f0098U, 0xbd7fd770bd80ac1cU, 0xbc610ce0bd6fc788U,
  0x3cd8cc1cbd4e1aabU, 0xbd9a2d0bbb4d69a0U, 0xbccb0360bd224166U, 0x3d9290ed3c8bdf70U,
  0xbd539c43ba832500U, 0x3c9249403d999abdU, 0xbd91abcebd1cc108U, 0x3da9a9113d9c4059U,
  0xbcd9158c3c3456b8U, 0xbc9dcdbc3da8853dU, 0x3cd97c6c3d00589aU, 0xbda7ffcb3daa2375U,
  0xbc9ab3143b882010U, 0xbcce1fd6bd0fa0e6U, 0x3c6212f83d1e1d10U, 0x3d9716f5bcc28e56U,
  0x3c3a4d683b5f8280U, 0xbcb2556cbab486c0U, 0x3c9c486cb8aa4000U, 0x3ce60c54bce2b92cU,
  0x3cb0464c3da3f3bdU, 0x3da188fb3c9a0f84U, 0xbd393a903b031820U, 0x3d9b75653d0d7106U,
  0x3d9220fdbd0db680U, 0xbc2eb2883cd9c384U, 0x3d5bcd7a3da0a5a5U, 0xbc88baf4bd885deeU,
  0xbc9ae6bcbd96ce93U, 0xbcf5b74c3da98495U, 0xbd9d063cbda65fbfU, 0x3da5ae9fbce97936U,
  0x3d9304513d185a08U, 0x3d25ffeebd911bf6U, 0x3d0cc1debcd5cfdcU, 0xbd62e80bbd428aa0U,
  0x3ccdad803da55515U, 0x3d5ce74a3d4c09eaU, 0xbd9f7e4c3d07d5feU, 0xbd4bc85bbc02bb88U,
  0x3d906c6b3ca9d164U, 0xbd0d36163b9e31c0U, 0xbd8d21a63d274186U, 0x3d24ab08bda24cb7U,
  0xbd9bdcf43c5af528U, 0xbd3c71ce3da7fcfbU, 0x3d8f2915bd33a0d6U, 0xbbdf95c0bd4b0c16U,
  0x3cd35850bd997942U, 0xbd1e8b333d2be6baU, 0x3cc064403cd2a980U, 0xbd3a8556bcdf5f06U,
  0x3d993b053cace040U, 0xbd81010c3cacf484U, 0x3d9d33dd3ce13be0U, 0xbc4addb8bbe9df40U,
  0x3d8db9d1bbc5fef0U, 0xbc8c2cecbcb4a69cU, 0x3d467fe23cedf630U, 0x3cf73b003d605f82U,
  0x3d16adaebd1fc64eU, 0xbd0090083d692b4eU, 0x3d0fe098bd95dfa4U, 0xbd280cd33be34b30U,
  0x3ccfb33cbd0107f8U, 0x3d207882bb231b80U, 0x3cfb16b43d837f59U, 0x3d9886e93d8cabe1U,
  0xbc4ac9c8bd67fd90U, 0x3d06795abd32a348U, 0x3d470596bd65ffeeU, 0xba4eba003c05b558U,
  0x3d04b650bc8afe60U, 0x3d9ebaf1bb5fbb20U, 0x3b8ce4803d0f04baU, 0xbd3e5bb63d854785U,
  0x3c4af5a0bd9fd3b6U, 0xbd347383bd4ec798U, 0xbd3f9b53bd67e8a0U, 0xbda397ffbda619ecU,
  0xbd95d67c3d266a82U, 0x3daa7e713d579976U, 0xbb33a3a03d41b9a2U, 0xbc05cbe8bc4a2a98U,
  0x3d0370003d95980dU, 0xbd0ac42ebd79d428U, 0xbda26eab3d92c5cbU, 0xbcdf1f303ceb4994U,
  0xbd62398bbd5341c3U, 0xbd9127583d44580eU, 0xbd342f1bbd55f21eU, 0x3d8607a33be03f10U,
  0x3bc9b150bc33b0c8U, 0xbda21d32bd844d30U, 0xbd1a67933cbf739cU, 0xbce7e1cc3c6398c0U,
  0x3ce31a4c3d8fa6d9U, 0xbd8ceda73d768abaU, 0x3a8b4840bd8e5778U, 0x3d214b26bd934b30U,
  0xbd5e51933d84b4f1U, 0x3d9702ebbdaa7410U, 0xbd8ff582bd623dfeU, 0x3d7269a2bcf0a246U,
  0x3d8aeff1bcffc5dcU, 0xbd181c883c3289d8U, 0xbd880a64bd32f1ebU, 0xbd1cfb48bd719ddeU,
  0xbd531a033d98a8b5U, 0xbd79a6603cb89014U, 0x3d870de9bd70ab48U, 0xbda2884c3d9036b9U,
  0xbbc6a1103cf93024U, 0x3d57639abd6137a8U, 0xbd876f68bc891c7cU, 0xbb1a8600bd2b6428U,
  0x3d5290463d2fc3c2U, 0xbd9cb15b3b319c60U, 0x3cd37ccc3d01ec70U, 0x3cd5fb903c185e20U,
  0x3d2088aabc32d248U, 0x3d3d23babd36e003U, 0x3d17da42bd21dde6U, 0xbd95e4b03d8b23e3U,
  0x3c86adfc3d926955U, 0xbcf0f3c6bc732328U, 0xbd8c81c2bd5fdc7bU, 0xbd794beb3d10ffd2U,
  0xbd94def0bd80a8e7U, 0xbb5ad4e0bd5f10fbU, 0xbd8b684abd752fd3U, 0x3d81738d3d75ece6U,
  0xbd60a17bbca83104U, 0xbca2b1dcbd275bc6U, 0xbccc8d36bda73314U, 0xbd3bcc53bda31b5cU,
  0xbc8071343d94a8c1U, 0xbd3d2ef3bd880744U, 0xbca0a2dc3d3347e2U, 0xbbddbe503bbe3330U,
  0xbc1d48203c83e7ccU, 0x3da9fb773d7476a2U, 0x3cf9e5c03d2e6cb6U, 0x3cdd6dac3d70421eU,
  0x3cfcff303ad6b1c0U, 0x3bd422003c857050U, 0x3ceef5343d99a65dU, 0xbc706d00bd3a65dbU,
  0xbd6b7a083cd11cccU, 0x3d6a826abc6985b8U, 0xbd9fe7f63ceb1f6cU, 0x3d72f572bd577350U,
  0x3c1f30083c5b2fe8U, 0xbc56c6e8bda04baaU, 0x3c6d04e8bd199a1bU, 0xbd6670d33b864410U,
  0x3da2dd613d099ae8U, 0xbd3c5d103d2293f0U, 0x3c8bc0503ce71cd4U, 0x3d3598923bf199c0U,
  0x3d7be806bcec8fa6U, 0x3d8080393d38d0daU, 0x3d0f3652bc6174c8U, 0xbd95c5773d95d07fU,
  0xba935240bd3861b3U, 0x3d5151fabc4fb638U, 0x3ca15b7cbd3e4debU, 0xbd2f0826bd6ee703U,
  0x3d8cffedbd984d93U, 0x3d8af5af3b78f7e0U, 0xbd85f6063d135122U, 0xbd3a6e13bd81debfU,
  0xbd97554ebca9f9bcU, 0x3c748960bc14e478U, 0x3d01ef903d606b62U, 0x3d23d2babcf1d52cU,
  0x3da22c1dbd6733dbU, 0x3d3bfc1abd5ff0aeU, 0x3cc9bbf43daa5a65U, 0x3ca49e00bc915844U,
  0xbd856fc3bd6cf0e8U, 0x3d9ff6a13d53c4feU, 0xbd694e533d5e471aU, 0xbc1d2a68bcd32660U,
  0x3a89af403c9f918cU, 0xbd95b7b2bba2e970U, 0xbda8508cbd6e952bU, 0xbce62cc0bcb0cec0U,
  0xbd8644f23d6189e6U, 0xbcc7484cbd922a8fU, 0x3cf803503c7a96e8U, 0x3d9dfb5fbd98ff7aU,
  0xbd28d543bd568146U, 0x3c75ecc03be96480U, 0x3d7598823d443c3eU, 0x3d983c1dbd3e038bU,
  0x3c8653acbd8c0d72U, 0xbc4efbd8bd8a1de7U, 0x3d3696f23d06e6aeU, 0xbd92b166bda41753U,
  0xbd1d79be3d2b1f8aU, 0x3cb62b243a9fc5c0U, 0x3cabc0943cc7a89cU, 0x3d6d7dc23ce02484U,
  0xbd9623cf3c6496a0U, 0xbbbd3b103d9e0995U, 0x3d2d2912bccfea26U, 0x3a642180bd785dfbU,
  0xbcf2a28c3d593bcaU, 0x3d33f30abd5feb03U, 0x3d1912da3d9bce89U, 0xbc953a543d44403aU,
  0x3ce287d4bbc9bb00U, 0xbd9fed0a3d2c6d46U, 0xbd20b600bc7553e0U, 0xbc3d6920bcb231a6U,
  0x3c54ce283d833cc1U, 0xbd8009263c9f1fbcU, 0x3d8f69dfbd81aa17U, 0xbd9a4f6fbda14e0eU,
  0xbd9243743d72518aU, 0x3a7270803d9e7b05U, 0xbd9d47c83c0c2ce8U, 0x3d28f520bd5f0b0bU,
  0x3c862b4c3d275038U, 0xbd2044b0bd2c7e2eU, 0xbd5aac903d71c212U, 0x3c8b58603d93ebc3U,
  0x3c71cf40bd194b86U, 0x3bf393903cbc2740U, 0x3d6c50b63d1bc100U, 0x3d9679f5bc496e98U,
  0xbc9ee62cbc92178cU, 0xbc7c73583b882df0U, 0xbd919adc3c8b2590U, 0xbd57cac6bd6fa8abU,
  0xbd481af3bd843528U, 0x3c84f1e43c95e10cU, 0xbc8770dcbd721dc8U, 0x3c57e6d8bc0ea738U,
  0xbd7ec30e3d1fa452U, 0x3c383d083bd08cf0U, 0xbc43eb483d8c715bU, 0x3d84b68dbd842338U,
  0xbda249ffbc6ab000U, 0xbd1da0bb3c936580U, 0x3d7b36aa3d88fc21U, 0xbc1880983d963acdU,
  0x3cf726f03d942071U, 0x3bf3a2d0bc1673b8U, 0x3c9d73043d90e535U, 0xbce69796bd64b92eU,
  0xbd38c100bd92e97fU, 0xbd210c13bd9221dfU, 0x3d55bb8abbac0af0U, 0x3d861f41bcffbc4cU,
  0xbda6df373d18b056U, 0xbd0ccd06bd511a60U, 0x3d6d236e3da05a1fU, 0xbd15f9bebce252e6U,
  0x3d462cd2bd07fafeU, 0x3cb4f8ecbda74144U, 0xbd050f783d9f05c5U, 0x3cf74bf43d4d094aU,
  0x3cb76d40bda2aab0U, 0xbc92beec3d416d82U, 0xbd9ac84cbd8e7cb6U, 0xbd5479eb3d45ac56U,
  0xbd8879a03d8ec151U, 0xbc3b18883d2ecd42U, 0x3da5a0873d0dbf42U, 0x3d05d5f23d2c7ca2U,
  0x3b6b9300bcf27bd0U, 0xbd909a48bc2ff018U, 0xbd9e99873cad6cd0U, 0xbc5120e83d154e48U,
  0x3d4064723c7447b8U, 0x3d2099283d4f03f2U, 0x3c571318bd2bb278U, 0x3b19e1a03d68af4aU,
  0x3d5825c23d8c6407U, 0xbcb5c3503caa0e90U, 0x3d9c27ebbcaca306U, 0xbd8e9c9a3c8dc920U,
  0x3d8a4d91bd1504c8U, 0xbda6b810bc31f538U, 0x3cef20e4bc052028U, 0x3d96c92d3cb3a2acU,
  0xbd9b818ebb19cda0U, 0x3d86bb0dbd13bf53U, 0x397c9600bc446720U, 0x3b18d180bb8e56b0U,
  0x3c66c6e0bd223048U, 0x3d1dbb963d272ed8U, 0x3d91cafd3be65b80U, 0x3c9a13443cd348b4U,
  0x3d6273823b8f2e80U, 0xbbba7150bcc8d9fcU, 0xbd99bc8a3d813455U, 0xbc92a5ac3d8154b7U,
  0x3da733933d84dc25U, 0xbd8423c2bc96ab9cU, 0xbca7da84bd7155b6U, 0xbd5ace96bd223e6bU,
  0xbd6b1e90bd5cc8e0U, 0xbc3a3b683d621152U, 0x3cf1f70c3d58f73aU, 0xbd9e815e3d9ca739U,
  0x3d81ff49bd0c74f6U, 0x3d1315303d77e632U, 0x3a04ca80bd85a1e8U, 0xbd7b65fe3d159b36U,
  0xbbee4f10bda6373cU, 0x3c9f05343d815605U, 0x3d8a64c13d09e976U, 0xbd6442cbbcdde496U,
  0xbd92f78f3d699156U, 0xbd5fa2d3bd9ccf24U, 0x3d0a18783da0d805U, 0xbcfe77d63ce945b0U,
  0x3d19c112bd2fcc08U, 0xbd9f09f7bcb52650U, 0xbd583423bd21292bU, 0x3d819b293c27f0a8U,
  0xbda8afc83d7370a6U, 0x3cb48c00bd1d04feU, 0x3d0366403d667972U, 0xbd2dfc96bd52a92bU,
  0xbbc828d0bce564e0U, 0x3d56591a3d911edfU, 0xbd3d0b583b6b76a0U, 0x3d7c42c63d38b61aU,
  0x3d9bdd69bd3d25a6U, 0xbd3dd0bb3d01b2c8U, 0x3d94d75b3d9fecd1U, 0xbd23e856bd010538U,
  0xbcdd8ffcbac984c0U, 0xbd160fce3ce6f01cU, 0x3d1da9283d70b8aaU, 0xbcd114803ced7964U,
  0x3bbd0300bbc8bcf0U, 0xbd24732e3a71b080U, 0x3d8dfe53ba4c7780U, 0x3d943125bcedf370U,
  0xbd23a706bc6dd1a0U, 0x3c2a76203d49da82U, 0x3d8221373d84f489U, 0xbb1bb3a03d13100eU,
  0xbc5e7f983ce83e1cU, 0xbcb5ecc03c520620U, 0x3cbedd6c3cc2fabcU, 0xbc1cdac83c466cf8U,
  0xbd36c39e3cdd944cU, 0xbd1b2e8e3cd03094U, 0x3b742c60bd795e80U, 0xbd35bfc6bc992a7cU,
  0x3d9a00cb3cf955c4U, 0x3bd8b7103da8fc95U, 0x3da4e6213d0140baU, 0xbd4b8e2ebd80682fU,
  0x3d49e4ca3ccf0cf0U, 0xbd18eb633cac1144U, 0x3d9dbb4dbcebc4d0U, 0x3cf184b4bcedd8d0U,
  0x3d971d8d3cf04f20U, 0xbd8635b63cb52d2cU, 0x3d37ff12bd5c9fd3U, 0x3d5f257e3cf74b1cU,
  0xbd839e60bbd3ff50U, 0xbcc6d3863d82c115U, 0x3d91ab27bc713488U, 0x3d989045bd1fff4bU,
  0x3d1501663d71a9daU, 0x3d6c70c63da18575U, 0xbaffd500bc7f20c8U, 0xbd6926c03d8755abU,
  0xbd7a166bbd2b1f5eU, 0x3d8bbf27bd3d021eU, 0x3c53ce18bca1efd4U, 0x3da412b5bbec56c0U,
  0x3ca249543da1d32dU, 0xbda80c6abcdcb296U, 0xbda5a0c8bd86b1deU, 0xbb56ca20bcc524c0U,
  0xbd521ec3bceade5cU, 0x3d69635a3c58bea0U, 0xbda76ed43d71cffaU, 0x3ccfa170bcd22b66U,
  0xbda21c403d42041aU, 0x3d963935bd0bd29eU, 0xbda2f9523b2f6460U, 0xbc9ed56c3d6c6bdeU,
  0xbc4c3e08bd2f3bbbU, 0xbd6ad1b83bb830b0U, 0xbcee3c903d96d041U, 0xbccd5ea0bd569aaeU,
  0xbac413003d59b516U, 0x3d99ce1bbda2b96eU, 0xbd901358bc1c0ff8U, 0xbd8e82023d0f3922U,
  0xbbd37010bd668b3bU, 0x3d312fa6bd4e5988U, 0x3d06f0183d22f06eU, 0x3d22d3f23c2b70b8U,
  0x3d5f193abd2ee1e3U, 0x3d6b687e3cc84d8cU, 0x3d61f6f23d9329bfU, 0xbb0fa080bd2fc906U,
  0x3c9a1590bd120b08U, 0xbc911204bd46a6a8U, 0xbd501673bda5302aU, 0x3c7da9e83da38d75U,
  0xbd225953bb95fb50U, 0x3da3156fbc70f398U, 0xbd1d5ce0bd53bb3bU, 0xbcfedf80bcd26586U,
  0xbd821cc83d76472eU, 0xbd5a790bbc8b37acU, 0x3a41fa803d30696aU, 0x3d27bb48bd828f6bU,
  0xbd0afb933d2cc546U, 0xbda5849e3d2de116U, 0x3d81a2513bd45f00U, 0xbd287cf6bc96f594U,
  0xbd82cc80bd9d78aeU, 0x3da577a53c240ea8U, 0x3d5905563d4d2562U, 0xbcedc5fc3d7c2732U,
  0x3ad36000bc3ef918U, 0x3d43bc8e3d918745U, 0x3d89c3f9bd2cc7d0U, 0xbd194b983d4a172aU,
  0xbba74d40bd3dcc40U, 0x3c16df583cd4f53cU, 0x3d0710883c191f78U, 0xbd2239883d25b5b6U,
  0x3d9fd519bd90502bU, 0xbd87975b3d55a84aU, 0x3d190ddebd8c5a0fU, 0xbc06a568bce27a50U,
  0xbd9c6256bd2232deU, 0x3d7b22babccf51a0U, 0xbd56f2403d21f7faU, 0xbd67efe0bdaa9646U,
  0xbc9aac2cbd770bd3U, 0x3d9a04bb3c7d88d8U, 0xbcb4b8563d42985eU, 0xb90d8e00bd161b70U,
  0xbda7522b3d8e13e1U, 0x3c477be03c277e00U, 0xbc18d9803c6d94b8U, 0x3c74c818bcbfa2d0U,
  0xbd9352a23d7965b2U, 0xbd52b2b33c25ea08U, 0x3d584782bd119eb8U, 0x3cf16c3c3d313f86U,
  0x3d37c5623d85f1e9U, 0x3d620f22bd213240U, 0xbd620b7b3d7ba12aU, 0x3d86c94b3d7f3b42U,
  0xbd359f533cb7d43cU, 0xbd46ae33bd8d9188U, 0xbc73d508bd545880U, 0x3c20f528bcd9272cU,
  0xbd50686bbcde9956U, 0xbccdd9d03d5a95d2U, 0xbd5e9a76bd167916U, 0x3d41b9963d83ef6dU,
  0xbc12cb803cfe343cU, 0xbd6d9b903c98924cU, 0x3cd857103d820985U, 0xbc92979c3d766ab2U,
  0xbda325b6bc02ee80U, 0xbc8bd2ec3d95b461U, 0x3d82bf39bda8c397U, 0xbd7987a03d9679ebU,
  0xbd6aac0e3ac3f540U, 0xbc592b40bcd19f00U, 0xb90a3000bd8de674U, 0xbb877bf0bd7688fbU,
  0x3d9c7f4dbd22e71eU, 0x3a1f2b803c357f28U, 0xbcc28676bcf69f5cU, 0x3c110f283c8cd3a0U,
  0x3c7f0060bd60722bU, 0xbcfaf71cbcf87dc6U, 0x3da97039bd8cbe2fU, 0x3d5282423d99b1ebU,
  0xbd9f6dc4bd48bdd8U, 0x3d5a861e3d2ee07aU, 0xbd468723bc5fbfb8U, 0xbc686138bca1c17cU,
  0x3d116702bb142ba0U, 0x3d543e123ce88e10U, 0xbd4d71fbbcb59596U, 0x3cc61d143d2130caU,
  0x3d9e1c0dbd4cc9cbU, 0xbd802a783da82331U, 0x3d8affe93d93febdU, 0xbd2e3ff8bd98c870U,
  0x3c5e89003d2f02a2U, 0xbd25ef33bd9b12efU, 0xbc95bd34bd64a728U, 0x3d65c9febd8053b0U,
  0x3bc79fb03c955614U, 0x3da6d6473d8d3359U, 0xbd58f980bdaa005bU, 0xbca1e6ccbd5a4de6U,
  0x3c5287a83d4d7cceU, 0xbce66a90bc4ffa78U, 0x3d616afebd8043d7U, 0x3d2f4716bba9c050U,
  0xbd58d9e6bcbd3636U, 0xbd950dfa3d81d3c1U, 0xbda639e0bd865588U, 0x3bbf13d0bd335488U,
  0xbd8b5d4b3d18164eU, 0xbd384f1ebd83d173U, 0xbd4dfaabbd3e3ac8U, 0x3cdd0a9c3cde65a4U,
  0x3d1f54923d1b2946U, 0xbd28b438bc25fb40U, 0x3c41f398bd8edf42U, 0xbd4a2078bd9bcb52U,
  0x3c8acd1cbd94fa56U, 0x3d41f76e3d2fd0e2U, 0x3b94ee903c1a3480U, 0x3d5a8766bd4824e3U,
  0xbd233a60bd10d96eU, 0x3d9a8a41bbe879c0U, 0xbbebbad0bb8a8540U, 0xb9a22c003d0f40d2U,
  0x3ba0d110bce0b17cU, 0x3c527138bd608aa8U, 0xbd1c2a1bbda55daaU, 0x3d58ce72bd9b3d44U,
  0xbd60e803bd579d63U, 0xbd419e06bd273a18U, 0xbbcda1703d10a172U, 0x3d7767923d0297baU,
  0xbd7c1a48bd9e4ed2U, 0xbd96dd3bbd0d0e76U, 0xbd6e7146bd4560f8U, 0xbd419c3ebb1e7fa0U,
  0x3b0861803d891a1fU, 0x3d832bb53bad03d0U, 0xbc658a003bfbeb00U, 0x3cfd873cbd1a9f23U,
  0x3d9cbef13cc99a10U, 0x3da8935d3c8018ccU, 0xbd9e2d2ebd22aa53U, 0x3d93bf393d156c3aU,
  0xbb5cba00bd821e60U, 0x3ce04354bd978577U, 0xbcac80bcbd6b3f36U, 0xbcc4e9c63bafc030U,
  0xbc3b8bb8bc852074U, 0xbd0fada63d0ed9c8U, 0x3d903c81bca49c84U, 0x3d90fa55bcfc1416U,
  0x3c12e4403bc3fdb0U, 0xbc829eacbd7aedd6U, 0x3d85360fbd020dc3U, 0x3c761788bda9d726U,
  0xbd955d6c3d806f25U, 0x3d91b9c93c091588U, 0xbca161b4bd0472bbU, 0x3d91a1f5bd8a25c8U,
  0xbd917de63d937469U, 0xbd9e3e673da60eedU, 0xbd6d297ebcc43676U, 0xbd1d73a8bd57d31eU,
  0xbc8e51f4bbca56d0U, 0xbdaa00aabcebe6fcU, 0xbcb9a35c3c963c44U, 0x3d86ae51bd449570U,
  0xbd7e1c8bbb1d7160U, 0xbd92350a3d52975eU, 0x3c6767e03be3ee00U, 0xbd0d6a9ebc802a3cU,
  0x3ccaaa40bd95e7dfU, 0x3d4239a23d0e1912U, 0x3cfc0e80bc965eb0U, 0xbd5305ab3da05687U,
  0xbd363c683d18790aU, 0x3d7098ba3d893ecfU, 0x3d58a17239ae2700U, 0xbda0e112bcdd83a0U,
  0xbd724a1bbd903a10U, 0x3d1cf542bd216d93U, 0x3d61b02a3d877e39U, 0xbd9482bc3cf64c90U,
  0xbca2a9743d9b16e7U, 0x3d160eb63d3f3cb6U, 0x3d60c9eabcf25fbcU, 0x3da1bbd13d1fd7f0U,
  0xbdaa12a0bd8b6e18U, 0x3d6313aebd397c0bU, 0x3c45d6a8bd443f7bU, 0x3da488a3bd15e6f6U,
  0x3db17a96bcf43450U, 0x3dcc8c6e3c3aeae0U, 0x3dc3c6123db900b6U, 0xbd802c2c3b745fc0U,
  0x3e0c8dc7bcc19fa8U, 0xbca8f5b0bde69bfeU, 0xbb330340bd98d9f1U, 0x3dbc51e63e036537U,
  0xbd8dc26cbdb7fea0U, 0x3df7b8cabdda5eb3U, 0x3cc59d80be23a8c3U, 0xbd80dfc2bcccee48U,
  0x3c2599a03cd42718U, 0xbba6a200bded0428U, 0x3e19c6a73c136510U, 0xbe1903353dbd22b6U,
  0xbe162eac3c9881b8U, 0xbdd334d7bb3c5500U, 0x3e16fb27be07f37bU, 0xbe18e692bd64ad10U,
  0x3d85075cbd2cedfcU, 0xbdda493f3ddaaff2U, 0xbd8cd61d3defd402U, 0xbe2ae147bc7d5540U,
  0xbe25978ebdabe6d5U, 0x3dad95b6bdc4792eU, 0x3b557cc03e25c2e5U, 0x3d8c5432be09465fU,
  0x3cb978f8bdc69f4fU, 0xbd7d0530bb2be580U, 0x3dc2de5a3e283e53U, 0xbe33f9153bd95ba0U,
  0x3d6654c43d5911c8U, 0x3d081fb4bc8ff000U, 0xbe0f7a503d1657d8U, 0x3e13944bbb3b5900U,
  0x3e00fe253e1f8b35U, 0x3e1e5f31bdaf4c88U, 0xbcca2728bd0ff53cU, 0xbd422274be2a6816U,
  0xbdb919e33d206650U, 0x3e0e794d3c6a38e0U, 0xbe2a7bc03e231d29U, 0xbccaf7c83deb552eU,
  0x3ceee8803e2ec965U, 0xbe0a79ca3e1be641U, 0x3dc606323d8f47a0U, 0x3e2b85f9bd3be66cU,
  0xbe2fc746bd93f91aU, 0xbdd8bd3b3e322be7U, 0x3de3e64a3e2fe061U, 0x3de16e163dc5245eU,
  0xbd52302cbd063b18U, 0x3dee6ce63e0df875U, 0x3dd2edf63ce7dcf8U, 0x3d4a7c88bd67ce58U,
  0xbdc77ce83d198cc0U, 0xbe08fdac3d0ef2b4U, 0x3d404d3cbde84841U, 0xbe1d0843be0ea708U,
  0xbd9486b9bd598dc8U, 0x3d7dd9a03d645eecU, 0x3dcb9edabe0f73b9U, 0xbd1fa300bdd2e583U,
  0xbd88da8b3d5818ecU, 0x3dfa815ebd916693U, 0xbbc34920bd817470U, 0xbd6ab5a6bd4df9f4U,
  0x3cf65600bd244f88U, 0x3e1062e7bd0c4f8cU, 0x3d0de4ec3c740880U, 0x3c3cbfd03dfd489eU,
  0x3d78269cbcda0fd0U, 0x3d2013b0bd439c1cU, 0x3d45e958be31b7bcU, 0x3e0b3bb3bbb0c600U,
  0x3e227e133c7bb4e0U, 0xbd95a4a9bd1b8c58U, 0xbce3ef70bcb98268U, 0xbe2575dabcbe4288U,
  0x3dec691abcb4b438U, 0x3ddbd3d2bdcb6c9dU, 0x3db9402a3d5c0e28U, 0x3c16cc403d55f304U,
  0xbe0554acbd74ecf2U, 0x3cf5c7103da3602eU, 0x3d1b436c3df7b586U, 0xbe257d753e0754a5U,
  0x3e08f5f1bda3d0c5U, 0x398a30003e0cde25U, 0xbe0e398fb8db4800U, 0x3da0b05abd2387c4U,
  0xbc2b84103ce4fc20U, 0x3de5c5b2bdbf9b61U, 0xbd256e483e07c75dU, 0xbdff8810bcc526a0U,
  0xbd18f9f43da0af0aU, 0x3cba39483d937652U, 0xbd4b1c8c3c78c3d0U, 0x3d53159cbdf3a91eU,
  0xbd8ea72bbd8b8966U, 0x3e11f3913d9a0122U, 0xbcf58d083ceef6a0U, 0xbd6fe198be245f5eU,
  0x3d43ba083d0ee2c8U, 0xbe01842ebcc89e98U, 0xbdadbb153e26a103U, 0x3d3cf4683ddcb942U,
  0x3e2b96513e232765U, 0xbda00c3b3c9e6c48U, 0x3db3459e3e327ef3U, 0x3db1b3223dd2c92eU,
  0xbda2e6e23e2acce5U, 0x3e0df431bdd39afcU, 0x3d020730bd46b548U, 0xbe0f5a033dc76c6eU,
  0xbd8f63d0bd7df27eU, 0xbd7fd2cabe284e34U, 0xbdbff4603da30cceU, 0xbd6a7cfe3e00fcf1U,
  0xbc43f6f03de13a6aU, 0xbe0d2d323e134b6dU, 0x3cabc630bc86cbd0U, 0xbdb2ff04be0a4fe4U,
  0xbd06fe6cbe01d0aaU, 0xbc2d4df0bc433420U, 0x3d73f52c3db930b2U, 0x3e321ddbbd69a3b0U,
  0x3c1e9bf0bd3b4d48U, 0x3d776094bd8f14c5U, 0x3ba837603d121aecU, 0x3dfe275a3e2d8e9fU,
  0xbdb4f27a3d95c7faU, 0x3a3064003e1aa509U, 0x3e1764053d51de4cU, 0x3daba89a3d170084U,
  0x3e339b333c936bc0U, 0xbd9349983ccbe2c8U, 0xbd951f2bbd0d8d48U, 0xbe17129cbd06c724U,
  0x3d77dfd8be02f6b4U, 0xbe0470b03dc4a90aU, 0x3d026f043e2bf615U, 0x3d9924f2be1fe3aeU,
  0x3c9d08283cc99078U, 0x3cd85790bde60911U, 0x3db672debd817b4cU, 0x3d898c8e3e08268dU,
  0x3da7eb0abe0eeb39U, 0xbda3cc7ebe1970beU, 0x3daa432a3e27235fU, 0xbc6a2380bdb99854U,
  0xbdc9e4a2bd04a3b4U, 0x3d2ac18cbc8c4068U, 0x3e1b49873c8e64d0U, 0x3e2268b7bcd740c0U,
  0x3dcbb442ba103c00U, 0x3e2c6eef3cdb4bb8U, 0x3e12ad0d3cdf55b0U, 0xbbd511803e3370efU,
  0x3e0e84cfbd979d77U, 0xbb2a41003e224205U, 0x3da69acebe0f846fU, 0x3daaedd63db9a056U,
  0xbe0f0738bda39671U,
};


ai_handle g_network_weights_table[1 + 2] = {
  AI_HANDLE_PTR(AI_MAGIC_MARKER),
  AI_HANDLE_PTR(s_network_weights_array_u64),
  AI_HANDLE_PTR(AI_MAGIC_MARKER),
};

