/**
  ******************************************************************************
  * @file    network_data_params.c
  * @author  AST Embedded Analytics Research Platform
  * @date    2026-04-14T11:06:10+0530
  * @brief   AI Tool Automatic Code Generator for Embedded NN computing
  ******************************************************************************
  * Copyright (c) 2026 STMicroelectronics.
  * All rights reserved.
  *
  * This software is licensed under terms that can be found in the LICENSE file
  * in the root directory of this software component.
  * If no LICENSE file comes with this software, it is provided AS-IS.
  ******************************************************************************
  */

#include "network_data_params.h"


/**  Activations Section  ****************************************************/
ai_handle g_network_activations_table[1 + 2] = {
  AI_HANDLE_PTR(AI_MAGIC_MARKER),
  AI_HANDLE_PTR(NULL),
  AI_HANDLE_PTR(AI_MAGIC_MARKER),
};




/**  Weights Section  ********************************************************/
AI_ALIGNED(32)
const ai_u64 s_network_weights_array_u64[103461] = {
  0x3e9ae345be151260U, 0x3e7689c2bdd6a0f5U, 0xbe17a1483e16d8e9U, 0xbda01dd23e81b892U,
  0x3db769f43eb8be82U, 0x3df4fcf23e596966U, 0xbcbdcf023dca811fU, 0x3e4965e8be687d27U,
  0xbba666713e808cc7U, 0x3e097083bd1b4b28U, 0x3e3657f33e6d4f46U, 0x3e3681913e940e42U,
  0xbf1a0f6ebea274e5U, 0x3e99a1a4bddedaf2U, 0x3e39a619bd639e42U, 0x3c81e7b63ec16094U,
  0x3ed51767bef1546dU, 0xbe63ac4fbe075e71U, 0x3ec230713e8b16beU, 0x3ea0f1cebeeeb5c1U,
  0xbe6425b03d251ebfU, 0x3e19a934be7763e2U, 0xbf0044ba3e1f5ccbU, 0x3eec35ba3d657f9cU,
  0xbe1d3259beb928c9U, 0xbd3f2b353e9609beU, 0x3ec6ab0fbd9eb310U, 0x3eb4aa863e9f1ab9U,
  0x3ea8f209beb10ee9U, 0xbf0fd6f8be9a8ab7U, 0x3d8b49cf3ef4d75cU, 0x3d5507d4bf10691aU,
  0xbe9d6ef7bee0501aU, 0xbe27b6903ec4213aU, 0x3efa9dcebeb4ae36U, 0x3e86b49e3ef98f21U,
  0xbed5c8313e1d9b1aU, 0xbec945dcbec9ca81U, 0x3ec96b66be107eb2U, 0x3e9f2a9b3a7c996bU,
  0xbdb968d43ef7de0eU, 0xbe3b46aebf12ad93U, 0xbe3413cebdf15ee4U, 0x3ee93492bddddfceU,
  0x3e10d2163f183c1aU, 0x3c89545fbeb56fbaU, 0x3eacff8f3c354c22U, 0x3ec25cb23e9f5948U,
  0xbda2b6673ec13348U, 0x3d51ece5bd7a7933U, 0xbdede5ffbe76795bU, 0xbe41e1103dd766f6U,
  0x3c8370d73e023ac2U, 0xbd07955cbe07e5fcU, 0xbefd7f54be9e887fU, 0xbe2b107ebe9142b5U,
  0xbea60cc63dc2741cU, 0x3d9e0df13e96c087U, 0x3e416e6f3e1c67abU, 0x3dd9b576bd697e2fU,
  0x3ea61295bea922fbU, 0xbedb66203ecff15fU, 0x3e9eac96be62614cU, 0x3ea0f61abd01607eU,
  0x3e9c874d3ead0aa0U, 0xbed11b233e44887cU, 0xbf29ed84be92ff74U, 0x3ecd6cbabe7a9166U,
  0x3ead2b46bd82961cU, 0xbe069891bd7272f6U, 0x3e14caf43e32b4bdU, 0xbef6acc8bd8a2a4dU,
  0xbd993af4bc651f75U, 0xbe055b0937e824a0U, 0xbbe1ad7abd9fc943U, 0xbd9164933e6836eaU,
  0x3c888e4939d6cbccU, 0xbea12651bd883f97U, 0xbda128573e9472fdU, 0xbd55bd1e3e8d9af1U,
  0x3d45b3a63d350b50U, 0x3d91db2d3df71013U, 0xbda3c0ae3dc0a58dU, 0x3d488ac0bd8ebbd3U,
  0xbda7e3f4bdc7e6e5U, 0xbca4df243dfedf3dU, 0x3deb97adbd7180b9U, 0xbc31c1b6bdc87383U,
  0xbcab670c3ced2eaaU, 0x3dd3b75bbd44299bU, 0xbe629ae83db8fdeeU, 0x3db917ca3d42fae6U,
  0xbca54e70bd94b4daU, 0xbd4e400bbccbca23U, 0xbda146fcbe1906dbU, 0x3dac051cbe08f53fU,
  0xbde2db28be525d62U, 0xbc0049343d5882daU, 0xbea207bcbda3a5bfU, 0xbbace3483d9ac332U,
  0x3d1a6d8abe2f24c1U, 0x3dd5efa8be034c68U, 0xbe43e510bd5dc9f9U, 0xbd9d3be73dc0e6d7U,
  0x3b1555fbbd7cf168U, 0x3d267d483e44429dU, 0xbbdc71103defa88eU, 0xbe03b90fbe0fccc2U,
  0xbdfbbcd0bdc27637U, 0xbc28ab40bd710897U, 0x3cb1dce5be136be6U, 0x3db1ad5ebc394e11U,
  0x3d44e2fd3d95595cU, 0x3c3f70e13e07952aU, 0x3d36cb603e3a9103U, 0x3e3c4c7abdcf04dcU,
  0x3d1802613d8c4a26U, 0xbd0986bb3c9932d4U, 0x3e4b7282bde014a1U, 0x3c3a3c29be3c6628U,
  0xbc8af8023d7fe194U, 0x3d25753fbdb6d421U, 0xbe1622083da674d4U, 0x3e930c9c3d85c9c5U,
  0x3e8171693d932c82U, 0x3d132f223d90e7bfU, 0x3cbfa423bb6ec385U, 0xbdcb9ac3bdf8aa97U,
  0xbdf2ab4fbd8ed0f6U, 0xbdd10eb03d3d42a5U, 0x3cc338adbd35ad64U, 0xbe060b5ebbd9d007U,
  0xbe0f2de1bdca9aafU, 0xbcfc831abddfd17fU, 0xbe0a94a6bd7c1825U, 0x3cc329a03e22ad96U,
  0xbdf56e7dbcf1cc17U, 0xbe891e013e4dc976U, 0x3e864e8dbc8ab307U, 0xbe1ed4bbbe71839dU,
  0xbe885a84bb78c7bcU, 0x3c380415bd4abb2fU, 0x3d9bbcaebdb9b27dU, 0xbcad54133e1c0234U,
  0x3c6e5e5f3b16600cU, 0xb9a385ae3e2fe058U, 0x3dc780253dce29aaU, 0x3e07d097be1f59b2U,
  0xbd33f6523de04ff6U, 0x3b1e7bccbd252c78U, 0x3e4f44a9be052a1fU, 0xbcac10cdbd9191d4U,
  0x3d4287cc3df936f2U, 0x3cad2e2c3a976e2dU, 0xbe6f27a53ce4b72eU, 0x3e0ab750bd51663eU,
  0xbddca183bdc66d7aU, 0x3d96adc53e34367fU, 0x3c84fe42be3872d5U, 0x3e0227f4bcd2f13dU,
  0x3ddfb20e3e001eb5U, 0xbdc6c60d3d8f8bc6U, 0xbe96532a3e18f84eU, 0x3db6f75c3caef077U,
  0x3dc017003e1fd858U, 0xbd6b2fe83cdd22c4U, 0xbd0929efbcd67ddeU, 0xbd5cfe54bd2a0063U,
  0x3cd390093ddaf914U, 0xbdd915df3e236eb6U, 0xbde336d1bc937db2U, 0x3d76f8d5bc635eccU,
  0x3e8296ee3e494e19U, 0xbccc83f63e670547U, 0x3da013a93d44784bU, 0x3dd00a973d1e2503U,
  0x3c52a14b3ca61a29U, 0xbc7856d33d66e1f5U, 0xbe87b4e0bc156129U, 0xbd679898bd35adc9U,
  0xbef483dcbebfc0f4U, 0xbcac107fbc89933eU, 0x3d5911f2bd1258e3U, 0x3d235ac0bc10618eU,
  0xbc860ff5bc4cdbfeU, 0xbd9061883e42c702U, 0xbe01a1183dbfde89U, 0x3d783ecabd0a2511U,
  0xbead70dfbe538d06U, 0xbcea5bbb3c2f4bb6U, 0x3d4bb98fbe11c875U, 0x3e05a624bce3480fU,
  0x3de0b41bbdd70f85U, 0x3d1e33e63e512db1U, 0xbdb62a2b3d74d30aU, 0xbe701524bcbed734U,
  0xbe77e08bbe4e09a6U, 0xbd7250a03d79f0bdU, 0xbde5678fbddd7906U, 0x3dfc01c83e01c4d7U,
  0x3d2369f83c35dd7aU, 0xbce43eb1be6b57ceU, 0xbe3aa77e3cbba5c4U, 0xbc72690e3ca4edd8U,
  0x3c91995abe670cb9U, 0xbd3e801ebde9c022U, 0xbd37656e3d3e01d2U, 0x3cf5813fbe4148ddU,
  0x3d36e8babdbbf150U, 0xbbbb2caa3d6bcdccU, 0xbe5df1d9bdb4e57fU, 0x3d42d06f3d570db2U,
  0x3de2842ebd3e8a11U, 0x3c226778bc7bac7fU, 0xbc2f130d3d11a33aU, 0x3da5aaf9bdb82418U,
  0xbe10552dbe122d4dU, 0x3cea612cbe829cd9U, 0xbdf7e23bbd864e32U, 0xbdaa90583d6d1d08U,
  0xbd2ce5103d99a993U, 0xbc320b68be29605bU, 0xbc5a86fcbc06931aU, 0xbd921e3b3c9b4852U,
  0xbe2cee17be1e4d0fU, 0xbc6b13f5bdfeeb4fU, 0xbe2fdb6dbba17cfbU, 0xbe3865c5bdab2422U,
  0xbe5b85a0be372ea6U, 0xbd81326cbe29733bU, 0xbe1e502dbc82b073U, 0xbe078f713d79e9aaU,
  0xbe4295ccbe058d58U, 0xbe9a52babede24aaU, 0x3ceed246be96b948U, 0xbe7f902abe27662aU,
  0xbe39c8953e6f5197U, 0xbd48fd4bbe04519cU, 0x3de86ddfbccf41b4U, 0xbe888fdebe5a2d8dU,
  0x3e293bf5bb200499U, 0x3e2a90b4be10f23aU, 0x3e988517bd52c501U, 0xbe0e03f93c0f7bd9U,
  0xbdf97b7e3de0da68U, 0xbcc22e6c3e3f7a5aU, 0x3e0d7a1abdec4aa0U, 0x3e03cc56bdc7ac20U,
  0xbe53a3ddbc39d1a8U, 0xbe943de3be9adc44U, 0x3b20d4c0be5d14f9U, 0xbdfe5b4ebd8cc211U,
  0xbe23158a3d0e00d1U, 0xbd4c38ffbd8dfcabU, 0x3c5c0e5a3d654128U, 0xbdb81a74bdae53beU,
  0x3d8fa0d43e0b282eU, 0x3d32087ebe4458deU, 0x3e7a697a3bb1b027U, 0xbe5ab5b0be07aa4cU,
  0xbe53cfea3e7282b2U, 0xbdaa59c0bc2acc87U, 0x3e23f3acbe3fe8ffU, 0x3d1061a6be84e25aU,
  0x3e04c0753e05ee54U, 0x3ea9cdc2be500e91U, 0x3c9017283e301524U, 0xbd3aa2333e52a826U,
  0xbe0eb43cbe0aaaf0U, 0x3daa8a1c3d6d5b30U, 0xbdb81a81be6394f2U, 0xbb4e9354bd7b5638U,
  0xbd390736bd2c119cU, 0xbdc818edbe41c8a2U, 0x3e20cf43be2cba46U, 0x3c1a94bfbe47f981U,
  0xbdb591523d67bf88U, 0x3d58c9823ab380e6U, 0x3dd0a83d3cb53e45U, 0xbd6c4731be5d2791U,
  0x3e5674433e2f1117U, 0x3cdc35a0bdfb739fU, 0x3e835bf63de967baU, 0x3ce173833d7bb694U,
  0xbea647fdbcc92600U, 0xbd55ca333dfad59eU, 0x3d8369c7be3bdac8U, 0xbd60e856be7825c4U,
  0x3e51d5b73dd6f90aU, 0x3de456c9be70447aU, 0xbe2b444c3e5bc414U, 0x3e7919e23e0c8c8eU,
  0xbe104904bde0508dU, 0x3d307daf3df33077U, 0xbdeefa81be6e5972U, 0x3d8466e9be8bba2bU,
  0xbb2a7c763c8012aeU, 0xbca662f1bd3d9441U, 0x3d71dd19bdae207eU, 0x3d988b793d3da9e1U,
  0x3d2757ed3cd1171eU, 0x3cf9f8943d0d1bebU, 0x3cecc01cbdc68acaU, 0xbdad0bbe3bd5abedU,
  0x3d8a8d873d6d8f81U, 0xbd33e2573cbe0d55U, 0xbc939170bb4c796eU, 0xbd3025b9bd328515U,
  0xbd16f7dabcec4768U, 0xbc7ac420bda954deU, 0xbbf5e365bdd8bcf7U, 0xbdc26cf6bdafed30U,
  0xbd42a3bdbd56ca1bU, 0x3d84cfa2bdcca8f5U, 0xbd1f65c53dad0614U, 0x3c7b3bedbd8a3e0fU,
  0xbdc5d985bd8bf025U, 0x3d8c919dbd210a07U, 0x3b7be4673d6b8628U, 0xbd88987b3d422799U,
  0xbda4cfcabd4964acU, 0xbd6cd51e3cdcd118U, 0xbd5181ecbd383378U, 0xbd8d0250bdbf5899U,
  0x3cc4bec63afd71c5U, 0xbd234d4bbcc764e9U, 0x3cff9894bdb72a70U, 0xbd6038e23d22c607U,
  0x3d00df3ebdb8d673U, 0xbd32d18fbd531271U, 0xbcd2e6983a72a791U, 0xbc0ef93d3d327108U,
  0x3b5430b7bdb17db4U, 0xbc276998bc41c1d5U, 0x3d4ac4723cbfbdabU, 0xbc5d7da3bd90ebb9U,
  0xbcfa5b953cf8cf02U, 0xbcd82fe5bda37215U, 0xbd6d921abd85e6b9U, 0xbb9dbefcbd27bff9U,
  0xbd2237a5bda1db76U, 0x3d58581abc42c8b8U, 0x3cea93f03d599d30U, 0xbd761cc7bd6da6cbU,
  0xbdc44dbbbdaee39fU, 0x3d09b390bd82d8fbU, 0x3c2232803d30527aU, 0xbdbbcb8fbdce10d3U,
  0xbd6881cbbd277247U, 0xbd963a80bc5c4a37U, 0x3d5d3da23cca8f51U, 0xbba813193d6b745cU,
  0xbdc7b070bd021271U, 0xbc421d73bdafe889U, 0x3cc0e36cbd1a2a5dU, 0x3d0a54cebd7d737fU,
  0xbde1041d3cca60f5U, 0x3d9e050dbc8b2927U, 0x3b2597f73c82f2c9U, 0x3ac76d80bdcdffacU,
  0xbd8474423d6af638U, 0xbd6bb6a0bcdf4776U, 0x3c37481cbb713938U, 0x3d44adf33d0b8b10U,
  0x3cab938d3d506342U, 0xbccfb336bda1e4a3U, 0xbda14afe3c8f9ae0U, 0xbc4a139ebd9cd3a1U,
  0x3c8d26ea3cfe07cbU, 0x3d825591be41d318U, 0x3de2f7bdbd488ba4U, 0xbe421422be2d6632U,
  0xbd93b8b43dcf9155U, 0x3d315ea73cf86897U, 0x3ce8b272be1aab80U, 0x39ebe0c2be864a6cU,
  0x3d5f170bbcd58d5aU, 0x3e5de71dbd793c6cU, 0x3d31b1083d5c551eU, 0x3c92d9c33ded4614U,
  0xbd529508bdf17272U, 0xbd50e6963d0b6175U, 0xbc951b2b3c820db8U, 0x3dc598edbe091a33U,
  0xbda091d7bc37b767U, 0x3dc7c4bcbd71c409U, 0xbe10caf9bdbb8aeaU, 0xbe2e322b3dd52e6eU,
  0xbe970958be2231aaU, 0x3d6d92d2be23e4feU, 0xbe3865203ca7fae9U, 0xbcb14fac3c9347d3U,
  0x3d75d699bc8b95f8U, 0x3e1022503ccb142fU, 0x3dda4b5e3dfb5cf0U, 0xbdc1f116bc2666eeU,
  0xbe5f15423d5fa6bcU, 0x3d2046ba3e07516dU, 0x3e16beeebe415ff3U, 0xbcb6e025bd22d94fU,
  0x3defb26bbc394b22U, 0x3e1e0bacbdf4042aU, 0xbd5ed87d3e403ef7U, 0x3d54bbd53e315768U,
  0xbe54a31abdbe0e6bU, 0x3c14a42f3d4a5418U, 0xbe8232dcbda5ce50U, 0x3d0724383caa84a7U,
  0xbe80a180be415daeU, 0xbd39106ebea5d35fU, 0x3d21097fbd9db699U, 0xbdbb6b003c1211c5U,
  0xbe524ba93d43fa4eU, 0xbd87d25fbe81bf54U, 0xbd4916b43c978bcbU, 0xbdc58166bd147c09U,
  0x3de3b36d3dee8edfU, 0x3e60e544bdc62b8aU, 0x3e2b07153e0fa694U, 0x3cbe5a653e48645dU,
  0xbe9af6d6bdca9a74U, 0xbada31003e4025e6U, 0x3b16c49cbe8af1e0U, 0x3c6bd8423cd855c9U,
  0xbcc1969a3d215dadU, 0x3e39a9b7bddc5dedU, 0xbe515cdd3dfc36f1U, 0xbe0029163e0ce18dU,
  0xbe917c9bbdb7d794U, 0xbd66dd35bda9f672U, 0xbe8876f6bde4b745U, 0x3c5f7365bcdc6d49U,
  0xbe399d4ebe4c945eU, 0xbdf895883c7c6e4dU, 0xbd33486cbe37b718U, 0xbe1a917bbc82e5c4U,
  0xbdcf45dbbc83b9f8U, 0xbda59c72be6f2d11U, 0x3d3391b8bc75e017U, 0xbdef39b4bb919f99U,
  0xbdf2ded1be0a4a2dU, 0xbeca9ba6be20e660U, 0x3e4550b9be9cf20eU, 0xbeb9eaf5be741aa6U,
  0xbeaec7743ddef953U, 0x3d0336febdf0582aU, 0x3db40cffbd542a68U, 0xbe90a6a13c077031U,
  0x3df8539d3c7d7173U, 0x3d26e3efbe8ce035U, 0x3dbb9288bdc06263U, 0xbe0c22253db4af8dU,
  0xbe674dcb3dd9ff27U, 0x3d73d0163df7196fU, 0x3e1691e8bddf0fc0U, 0x3d2a45d7be4f6bb8U,
  0x3c9a4f433db89395U, 0x3e03d049bdac89ddU, 0xbd8e3762bcf6513eU, 0xbd986b473e376a5cU,
  0xbe7be242be8c512aU, 0xbda7747dbd18a63bU, 0xbe2ab74cbcd08ef0U, 0x3c682e34bd3d1dd3U,
  0xbdab41f0bd6defa7U, 0xbeb4f2ecbdb4bf42U, 0x3e7a3938be42e0c3U, 0xbe8cd12dbe9b3d76U,
  0xbe8a7944bcb80649U, 0xbcec3a7cbd091a57U, 0x3e6b15293c398464U, 0xbe4a47b3be73e64cU,
  0x3da63e873b77235dU, 0x3e086688be3d5230U, 0x3e4a77d33d961fedU, 0xbd6b9c013bba470cU,
  0xbe76e72bbe0297b6U, 0xbc66f8e03d87d229U, 0x3e3e5ac9be1dade0U, 0xbcaafbc9be3726d5U,
  0x3da80470bcb278b2U, 0x3e707cf9be94a413U, 0xbe9fc4983dc62f77U, 0x3cc35d203e334278U,
  0xbdb9ae70be117de3U, 0x3cc6f11e3ca86e62U, 0xbe6939fb3e0c8c67U, 0x3dbb3fd1bd1355a4U,
  0x3b17e8303d8990b8U, 0xbdad3e84bda6167cU, 0x3e8d7b57bd7e5c5bU, 0xbda36fc8be623581U,
  0xbe68f2e03d31f12cU, 0x3d9dac8b3d31adc6U, 0x3e3ee7d7bd2104f1U, 0xbcb31ff9be52a0a2U,
  0x3d1aaeb73e108d54U, 0x3d529c49be12b238U, 0x3e48f99c3e028a46U, 0x3d8a9a8d3dac88d7U,
  0xbe8f54b5bdb24d78U, 0x3b8bdf003e0ae053U, 0x3d4d2c65be0e0647U, 0x3d8e2faabe6f2db1U,
  0x3ce2ee54bb9c0486U, 0x3e2c7aebbe4eec56U, 0xbeb748aa3bb84e2bU, 0x3d351e443d28bcd3U,
  0xbcc2aa1cbdb69818U, 0x3d5a26bfbd40389dU, 0xbe83f495bc071a89U, 0x3d20fca2bca882a7U,
  0xbe9e0f56be09d17cU, 0xbe90fb75bcb8613fU, 0x3c8119e5be68c562U, 0xbe3ae123be05ae95U,
  0x3deb0398bd2f2e49U, 0xbd819a7cbeac83f7U, 0xbdf657253dd7c271U, 0xbe41f6abbd1d3abfU,
  0xbd4694bcbd994906U, 0xbe90094f3dca7169U, 0xbda0ecb8be7b3416U, 0x3d296550bdcde3b7U,
  0x3e1c0134be0e15a4U, 0xbc80d7e4be727774U, 0xbe382de33d9023ffU, 0xbe28bfbfbd0244caU,
  0xbd9b054dbd5a32d7U, 0xbe6ef9063e5904abU, 0xbbd1128abdefbe59U, 0xbdfa888b3cae3638U,
  0xbdf2147bbe017fabU, 0x3d176c28be3c3482U, 0x3cdeea163ce9aad7U, 0xbcb491573d513b36U,
  0xbdfa97073d0294c0U, 0xbe8e7ea0bde63f4fU, 0xbdd23aebbe366952U, 0x3e053f04be3a0fa6U,
  0x3e4364c73e0d0ae8U, 0x3d051ec0bcfbd014U, 0xbde329aa3d2abfcbU, 0xbe35858fbdc5a66fU,
  0xbd1fbd68bc814b02U, 0xbe28be30bdfafb29U, 0xbdab15bebda41869U, 0x3e244b46be104e26U,
  0x3e7941253ddff87dU, 0xbbf9a9f03d2d103bU, 0xbd0070de3dca5d30U, 0xbe040da4bd0112f2U,
  0xbd4b86633ca4ec0eU, 0xbd9e5d4ebe133ff4U, 0xbd93655fbd49ca4cU, 0x3e2e0dd3be0dbd1aU,
  0x3e71a4fe3e13138fU, 0x3ca37fd43c8915a7U, 0xbbe32b2c3dc2e336U, 0xbd0f9aa9be1994ebU,
  0x3d9d27b43d8567f4U, 0x3e06b8553d603afeU, 0xbd83836abca230faU, 0x3d5ba47a3d16a2fdU,
  0x3d82ecd6bd85e382U, 0x3cd5cf0c3e271be6U, 0xbdb1ac633dc0dfe8U, 0x3dfbe4efbbb444d3U,
  0x3da53cc93d92d495U, 0xbcb2b1233e5c34deU, 0xbe05aa723c92cc12U, 0xbd855ad1bdf3cfc1U,
  0xbd5e0240bd3f1ebdU, 0xbd4365723de07c22U, 0xbc9d6e78bdbad463U, 0x3df4b9c7bdaca728U,
  0x3dc731713d372744U, 0xbd29a06a3e77ce15U, 0xbcb5a3c13c74b7d4U, 0x3de53b75be113971U,
  0x3d326efebe0a9e2cU, 0xbd6b287fbc7e4a62U, 0x3e3408c93c0c360fU, 0x3c544d313d806e59U,
  0x3dd324733dced08cU, 0xbda0c1afbc0ed15cU, 0x3d84a04e3db1b388U, 0x3ccc6ccdbe36faceU,
  0xbd9adebfb977f065U, 0x3d69d7223dd4615fU, 0x3c7b137ebe88ee92U, 0xbe078cfcbe2064c4U,
  0xbce88fc0bd976c6eU, 0x3e389a21be9bb462U, 0xbe1139693de6ae8dU, 0x3dd491143de59ff0U,
  0x3d3d8e1e3d9f8d15U, 0x3baf0e503d2f3649U, 0xbe0026893c07e56aU, 0xbd3c356fbdf95650U,
  0xbd0f5daabe110b33U, 0x3dd2a9733b1d13b3U, 0xbcc7ad9dbd7880aaU, 0x3d4283c63e0aa30fU,
  0x3dd5a6c13dde5d7cU, 0xbd105d823da549fdU, 0xbd9af3d0bd90461fU, 0x3bdafa613dbc673dU,
  0xbdfbb193bdd60cc4U, 0xbe9b8e383d7c4ab7U, 0x3dc95596bc5b4aecU, 0xbe93e33dbe64a6aeU,
  0xbe78e0a4bdf8603fU, 0xbcea85ec3c05813bU, 0x3de5e0bdbdef7813U, 0xbd82b67fbe26b3d0U,
  0x3dc406733cc29329U, 0xbc37cc7fbcff3a45U, 0x3d2a11393db9e242U, 0x3e2ac7b33ce2ea2aU,
  0xbdeb62f6bda297abU, 0x3c3788183d23b1b8U, 0x3dfac77bbe685672U, 0xbdb7c45bbea91ef7U,
  0x3c7841ec3d8d3f17U, 0x3d82a5eebe40f1c7U, 0xbe8b63b43e26e080U, 0x3ea5b9d53e148004U,
  0x3e8538983c186515U, 0xbd130e39bd6e0930U, 0xbcb12f0d3b3aa3ffU, 0xbcaa0849be173fadU,
  0xbe18ae6ebdfba93fU, 0xbec426b63c10301cU, 0x3db470b8bde71635U, 0xbe72ee9dbe9d7533U,
  0xbe05ee99bda0f393U, 0xbc905c0cbe426182U, 0xbd1bad45bde0b254U, 0xbe338f20bdb7d5cfU,
  0xbc625a353e0c64a6U, 0xbe6ced443e1a5112U, 0x3e8e1a653c0f3dc1U, 0x3d373cadbe62132aU,
  0xbea633e4be3aaffcU, 0x3bcd69c0bbd0215aU, 0x3e1938adbe2e6d97U, 0xbd2b2012bdf6a21cU,
  0x3df9699d3e027700U, 0x3c6c71093d9ed0e4U, 0xbdb0dfaf3e038849U, 0x3e6d2e8cbe0ac5eeU,
  0x3c83cce53db6b7e9U, 0x3d93764b3dcd5d93U, 0x3e0d47a1be3d18f2U, 0x3ddf094ebdcb6b07U,
  0x3cb99222bccda88aU, 0x3e5a07c43e3f4f4eU, 0x3da53e313d3c4e2eU, 0xbde5389abb20f51fU,
  0xbbda48c43e49c379U, 0xbd55e24a3dd27337U, 0x3de487aabe5bb50aU, 0x3db92adfbd307dc7U,
  0xbc27f1473d1c1c51U, 0x3e2e0e803ec0d2a7U, 0x3b61376d3c9bd76eU, 0xbe3acc323d1a0aeaU,
  0xbe888b52bc97c935U, 0x3d8651d4bcfb0ad7U, 0xbd8bac17be54bc61U, 0x3c8427ac3dc2708bU,
  0xbe11361ebddef66aU, 0x3d3e2cc93e07010bU, 0xbdb51ae03d171145U, 0xbc531a2bbd906a97U,
  0xbd6a5b61bdf58b46U, 0x3d9a7872bd7547a6U, 0x3dc4604bbe01747dU, 0xbcc65c933cab1ed5U,
  0x3d1851a1bde00caaU, 0xbb1bb74e3c7ca707U, 0xbdcf191f3d6fb8f2U, 0x3b0f72d2bb68c065U,
  0x3e0473963dd37e5aU, 0x3b880ce6be0886cdU, 0xbdbfe882be6a8cc5U, 0xbdaab343bd8f6e48U,
  0xb90f532bbdb2ec2dU, 0xbe2e5936bde2597dU, 0x3d180a8ebcd9ab5bU, 0x3e4831adbdd538faU,
  0x3ea3f0023e552dbfU, 0x3c3c11c33ca02603U, 0xbd5e43063becbfb0U, 0xbe0c5bcfbd4a669dU,
  0xbdb294b13d197e86U, 0xbd27c65a3e03ada3U, 0xbcb2006d3c3a762cU, 0x3dc645cdbd946a1aU,
  0x3e813a683d646789U, 0x3c85eef43cba6a50U, 0xbdd756f3bd04fe92U, 0x3a90d55abdb975a3U,
  0xbc7c19c83d56af50U, 0xbdc6d6a03e9b38a4U, 0xbe91ef3839256cfeU, 0x3e2c0b60be2b5b8eU,
  0x3e9cdc063dfa592dU, 0xbd44437b3e234c0dU, 0xbd18e7263bf611e4U, 0x3dff8bf93d70c708U,
  0xbdb88f743b730e97U, 0xbdf578453ed828e1U, 0xbe5f74653df3260dU, 0xbc6fac9cbce4f2adU,
  0x3de2231fbc0a1ba7U, 0x3d6d13c73db282c6U, 0x3b1cbebebda2b40cU, 0x3d0bd7d23e93f1dbU,
  0xbd7dd7bb3d3bebc2U, 0x3cf6bf973e8c21e7U, 0xbe1f0bc23dc6cd12U, 0xbd954a57bd06170fU,
  0x3d9465aebdcf0e58U, 0xbd9d586abd9ce1acU, 0x3d80ea4dbc4fc1d9U, 0xbd04ce4a3e19b374U,
  0xbe0eaefc3c77ce4aU, 0xbc4e1bc93dcd4c3aU, 0x3daebec13d0ace05U, 0xbe9b84c5bda35276U,
  0xbec4e7f6be044654U, 0xbc804cb0bd8e9bfdU, 0x3dae0530bd7bd294U, 0x3d8d20c73da1900dU,
  0x3db9db0a3d456ed5U, 0xbd7457513dd6f0f9U, 0x3e7059043e1a6b56U, 0xbe0173a1bde72509U,
  0xbeb84cd53d045124U, 0xbc8ba724bdc8b26aU, 0x3e627c4ebe0faf7fU, 0x3d28c6cdbe131b02U,
  0x3c2d398bbccedf83U, 0x3e43529dbe94d3dfU, 0xbe8790ad3df0e302U, 0x3e6c1f7b3e95e86bU,
  0x3d8c57b9bdd563c6U, 0xbda119efbc5e0cb7U, 0xbe652a47bdcafe06U, 0xbdc12323be698970U,
  0xbe9fbeb5be945ea2U, 0xbe34cde9bcf849a8U, 0xbd9c2ad1be994c6cU, 0xbe46acbdbc98631bU,
  0xbe25fb0fbe3a85a6U, 0xbd8fde28bebc1f27U, 0xbe0c455a3d9b3a2eU, 0xbe390603bbbcb559U,
  0xbd2988713d2e72ffU, 0xbe3640633bc84b0cU, 0x3ea8a660bce76025U, 0xbe1b097dbe461760U,
  0xbeaa981a3d8e6bedU, 0xbd3c7100bca40e75U, 0x3e4e47d3be661909U, 0xbd30849bbe46499bU,
  0x3dd606673db46bacU, 0x3e2e6575be3ad848U, 0xbc030a183e62767fU, 0x3e95b7513e1a34ccU,
  0xbd83c145bdd00907U, 0x3d2aae9abc8b73abU, 0x3bc951adbd8f94caU, 0x3d0c7b30be7bf360U,
  0xbda7e102bd4a964eU, 0xbd38af1ebdd6cf97U, 0xbd05037ebe51469bU, 0x3da74b33bde3d957U,
  0x3e09a09ebd653aefU, 0x3c071f18bd950c47U, 0xbd4c6dc13cd0219fU, 0xbe5bd80fbd8bee37U,
  0x3d3d76ca3d16a241U, 0xbe1a9a1d3dd02624U, 0x3e4c3f38bd316b65U, 0xbd90b894be01ebbdU,
  0xbe4102d63c90b834U, 0xbc975e0c3dd4116cU, 0x3e42417fba2c0f39U, 0xbcdb8445be80e7e0U,
  0x3e2ceb7f3d74e86aU, 0x3e05dc63be1231c0U, 0x3e231b633dbc1cb4U, 0x3e633db63c45f93fU,
  0x3d83a4f7bd2bf042U, 0xbcbc2ca63e2d7fcbU, 0x3e0f8b94be6401acU, 0x3cb252e0be49064dU,
  0x3cfbe1293d26fd5cU, 0xbdced6e9be0e8bbaU, 0xbd948f0b3d376f88U, 0xbda85559be8d23b3U,
  0xbe212bd2bcdbf3bfU, 0x3d32d8dfb8add35cU, 0xbc82d0afbe04fd95U, 0xbdfdea50be81f4a6U,
  0xbd401e083d53ca1dU, 0xbd5d2343be8ddf24U, 0x3dc6ee15bdc19166U, 0xbdb8474ebdb8b424U,
  0xbe44fa483e29496aU, 0xbda490ea3e0242d5U, 0xbcfc6e6fbe448ca1U, 0xbd45a752be81d532U,
  0x3e01000f3b80a7b7U, 0x3e3364a63dbd89acU, 0x3de97edd3e563f66U, 0x3cabcfc93dcc66edU,
  0xbdf0f92e3e321e3dU, 0x3d80d4bd3dfd4335U, 0xbe2c1e58beaba195U, 0x3d24eb953d6fb4c2U,
  0x3c9b93743dc11891U, 0xbd316a32be4686a4U, 0xbcd9f65dbd832357U, 0x3d52dc06be548e98U,
  0xbe0920613d6cc4adU, 0x3d1cbf8e3dfe41f5U, 0xbd9d1360be1d3566U, 0x3d84d405be49493dU,
  0x3e1d04b53dc466afU, 0x3c328197bc6a4064U, 0xbdc298833d141b1eU, 0xbcc3033ebd978e0cU,
  0xbe59fb0bbdad922aU, 0xbcddd3853de6e562U, 0xbd839c2cbeb1701eU, 0xbc380c49be7e7b07U,
  0x3daa0612bd05bfdcU, 0x3d82b85f3ad5edfcU, 0xbe89367b3e6b31aaU, 0x3e46bfc53d52d962U,
  0x3e2abe2e3e16e695U, 0x3d32b81ebd927e3cU, 0xbda14347be6c28ceU, 0x3c955860be3615cbU,
  0x3e080ad63d39d461U, 0x3c32ca7bbc048df8U, 0xbe45ea663cf07182U, 0xbce54f30be13b439U,
  0xbe26007fbe503237U, 0x3cb59e443dfba03aU, 0xbe157f82be87b365U, 0x3d9bb447bd80ac3dU,
  0x3d16d92ebd216f5bU, 0xbdd2aabd3dba2ceaU, 0xbe2c5bfc3da396f4U, 0x3e510512be0f4cafU,
  0x3d111349bd978280U, 0xbc99c41c3db3311bU, 0xbb9f06d0be95d426U, 0x3ca3fcb8be1adbd5U,
  0x3e0936913db5f1ecU, 0x3c6c49fb3e9d7284U, 0xbdcd57d23d040ae4U, 0x3e96ba66bd8310c1U,
  0x3e242a6fbcb7b1c3U, 0x3cf23bac3d22d666U, 0x3e34263ebe2aa360U, 0x3d575aec3c089209U,
  0x3d5362d23d6c102eU, 0xbc4db584bde5e46eU, 0xbe361b773d65a836U, 0x3d8f0b03bd270223U,
  0x3cf56e64bc59f2beU, 0x3d3828be3bea19a6U, 0xbe162f6f3d59cc98U, 0x3c223825ba11cdecU,
  0xbc24eb883cc699d2U, 0xbdc20582bdd68655U, 0xbe10658bbdd039d9U, 0x3da8001abdf218bbU,
  0x3cbc4513bc891632U, 0x3d4eea16bbb58323U, 0xbda9ceaa3ac89b06U, 0x3cfcb1723bf73519U,
  0xbdb1c15fbdcc9dc2U, 0xbe8ceec6bc243e4eU, 0xbba28ba9bd930151U, 0x3dc5fe7bbe172599U,
  0x3e4324a53e17ba84U, 0xbc8f3b34bda30128U, 0xbd7c0d2e3da9c669U, 0xbe385ae9bc33d226U,
  0x3d69b1543d07814fU, 0x3e4f6903bcdf7c92U, 0xbe675b16bd07d88aU, 0x3d654f033de179baU,
  0xbd7464e4be666e38U, 0x3d87bc33bda43a7bU, 0xbd9ef56b3bb04ab9U, 0x3da4aa8cbe14b679U,
  0xbe0541203cfd10fbU, 0x3d7d905abe14f1b9U, 0x3d2a5cbcbdac0520U, 0xbd2ff9483d42e8a0U,
  0xbe0262a73dc1b01bU, 0x3d97aa01be1973dcU, 0x3ddcf123bd12e7baU, 0xbdc32f383c548af6U,
  0xbd01c5d93dd3701dU, 0xbe8736a43de9fbbcU, 0x3e03cc413be33063U, 0x3da0a921bdd3f46cU,
  0x3e2385ad3e5b400bU, 0xbcbba6103e098cc4U, 0x3db192243cfc2920U, 0x3d1b196dbc42e687U,
  0x3e1135763dab01ffU, 0x3e8507d3be48b15cU, 0xbd4ee7713d921189U, 0x3e44fbe03e293b1dU,
  0xbb12d2afbe273c60U, 0xbc85fd41bcdc231fU, 0xbc9fd1b43d7f9b70U, 0x3ca26f32bdf5081fU,
  0xbe344546bd8be3f2U, 0x3c46e133bd10b3c8U, 0x3e1c349bbe3b3b05U, 0xbe12bb3d3cecf45fU,
  0xbe85a181bdfc8c7fU, 0x3d89118abe6e298dU, 0xbd539652bcec8752U, 0xbd58dbbfbd71f5feU,
  0xbd4dfdacbdcb3e7eU, 0xbe9429e63e919c27U, 0x3e57a44dbce0b23aU, 0xbe9e307cbddd00f7U,
  0xbeb509e5bd8bb29fU, 0xbd3f097e3d93f7b8U, 0x3de94a8dbc9d5a25U, 0xbc69b04dbbd2db80U,
  0x3c8ecd53bdbc5deaU, 0x3e39dd793d059d48U, 0x3e6417d83d9d5d5aU, 0xbcc8786b3dc7e238U,
  0xbcae525e3d789978U, 0xbcc948dc3d29902dU, 0x3e192bdbbe701903U, 0x3b1bfaf4be44be56U,
  0x3d993790bdbf15eaU, 0x3e998d0dbd5ca07cU, 0xbacea17a3da7fa86U, 0x3e490f223e61f3bcU,
  0xbb6b63c7bd574431U, 0xbd472377bbf5d2ecU, 0xbe28f8cebd97e1e7U, 0x3d915afdbc985709U,
  0xbda0e5d5be13c8aeU, 0xbdb995c73e93fa0bU, 0x3e3d04bcbcf3f075U, 0xbe870763be057c23U,
  0xbdbfbd213e3dc09cU, 0xbd225a11bd820e1fU, 0x3dafdbd0be7cbffdU, 0xbd7e98a6bd878cddU,
  0xbd6c7c56bc8c0dc2U, 0xbe001c6d3e887f2dU, 0x3ea7b8b03c7ff2bdU, 0xbdc7e114be3c5404U,
  0xbe3a6b44bd88d1d7U, 0xbb11ff603ce17b57U, 0x3e88725dbebdaffaU, 0xbc279d1bbda75b46U,
  0xbcf621e9bd3689edU, 0x3e23f512bcbda2d9U, 0xbdf963fd3e395fffU, 0x3e9bee323e0f8bb9U,
  0x3def703a3c571ae8U, 0xbda2dd133d5bb21aU, 0x3dacb35dbe819226U, 0xbd9906fbbe987decU,
  0xbda43627bdf0dcc7U, 0x3d8c30713ab968cbU, 0x3e198e4fbe11c56fU, 0x3dcd3bf33cea11d1U,
  0x3e49fcea3d660e0fU, 0x3c40d154bd3788f8U, 0xbe047a96bdf583c7U, 0xbdd6951bbc93becaU,
  0xbdce2f79bdb79c52U, 0xbea35b263e860352U, 0x3e082c29bd399bfdU, 0x3d915e4bbe4e3f59U,
  0x3e3ddecbbe2064a5U, 0xbcdd2bacbcc983adU, 0x3cba785dbd44f4efU, 0x3d7f51893d1a5683U,
  0xbdade0ebbc1e2113U, 0xbe36d8f73e6cba01U, 0x3df244533e0660daU, 0x3d39d7aabd845d12U,
  0xbc67e10fbbc64e11U, 0xbd1bc9b2bca47090U, 0x3e617973bea58b36U, 0x3da11466be055f02U,
  0x3b058d083c25acb8U, 0x3e079e853d29692cU, 0xbe77f8e5bbea7d47U, 0x3dd62c753d9ba5ccU,
  0x3dc5714fbdbbf29aU, 0x3d8460b33d8f4b5dU, 0x3cb8ff57be0cba6aU, 0xbd958feebc878f00U,
  0x3e19a1993e15567dU, 0x3e00d4a6be17e26dU, 0xbe20ca563d32b776U, 0xbd83fc0fbd058bceU,
  0xbe77ec10be48a193U, 0x3da2cd713e268e90U, 0xbc14d1c0be75d92cU, 0x3e2e616bbda38b46U,
  0x3dda7ee73df4663eU, 0xbb66eac1bde61b8eU, 0xbdb916043dd6d19bU, 0xbd9264f83b573f67U,
  0xbdeeff85bd2ebc7cU, 0x3b2a24b53d838298U, 0xbcd2ac03be2081b4U, 0xbd1c4651be25e111U,
  0x3dfb760abc0d1ccbU, 0x3e334736be0d7f7aU, 0xbe99c1e13e5b7982U, 0x3e2eb0183d53d3c9U,
  0xbb8d71533d808903U, 0x3d21f5d63d848a85U, 0xbe43f1cbbe0d5be1U, 0xbbd448113cde6373U,
  0x3ac031763da669d1U, 0xbd45d1513cdf896aU, 0xbe22e1a53db7deedU, 0xbcae3e98bd5186ffU,
  0xbec8b7adbe96fbb9U, 0xbd3b758ebd59def0U, 0xbc11924f3d2c8439U, 0x3c36039cbe3a27b0U,
  0xbc2063383c8fbe29U, 0xbd87ab923e08d6d7U, 0x3da277703d593141U, 0x3bf47da2bda88be9U,
  0xbe5e1657be6d4cafU, 0xbce8dc77bd98f6adU, 0x3d33277abd98f65cU, 0x3d476d3ebe05e4baU,
  0x3d9a9c103e211cf1U, 0xbe3474fa3dbb47e8U, 0xbd196c883e2d03aeU, 0x3ea12864be419236U,
  0x3eaf466b3ddab80eU, 0x3d02237b3de13bbbU, 0x3e7cf8f7bd91abfbU, 0xbbeec110be41c1d2U,
  0xbd275e61bdb3e2a2U, 0xbd615db13d5071bdU, 0x3ce3102cbd5b2538U, 0xbe685505bdd1f884U,
  0xbe9ce875be8c249dU, 0xbcd59f40be716234U, 0xbd32929c3c70a41aU, 0xbce289a63d4616e0U,
  0xbdc6d8f4bd97186bU, 0xbde08f8d3e4291b2U, 0xbd0047813cb009b5U, 0xbdd6b001bd498e01U,
  0xbe8dcf45be9de375U, 0x3d35fecabdfa4964U, 0x3d9cce56bd9ee17bU, 0x3dada1ed3d8dd743U,
  0xbd44000bbdc111b6U, 0xbe8bb31b3ea3edeaU, 0x3e7e574bbd8d7bedU, 0xbe53eb96be3d0214U,
  0xbebb2acfbdeb3ee6U, 0x3d86e2cdbc41bce5U, 0x3e8c871abe39abeaU, 0x3e60cef13e5ef29fU,
  0x3e0f6cc83d01538dU, 0x3dad6fcb3d560d50U, 0x3a305304bc1c2c5aU, 0xbbf5837cbe134d09U,
  0x3d4293953ddbc7f9U, 0x3daa56c13e017ae8U, 0x3d6f61d4bd47b04bU, 0x3db4488cbe17bc66U,
  0x3e63499b3ddb068bU, 0x3e4c49d33e502910U, 0xbdd3ec293d23eb89U, 0xbda31ebd3b8c83b1U,
  0xbe1bc1a33e1d8003U, 0x3ca3b0913e569a2cU, 0xbc707392be1f027fU, 0x3e00d6093d5864c4U,
  0x3e1840fb3d57a09cU, 0x3e35eb013e65284dU, 0xbe0d622a3d8790d8U, 0xbe4e7c823e07c1c2U,
  0xbe63e0c9be2cc6a7U, 0xbd8939c83e3344a3U, 0xbd34b2a3be6b714eU, 0x3e1e51f33e237607U,
  0x3dac17033dbbe96cU, 0x3d9dfc253e45db6aU, 0xbdff112b3d0506faU, 0xbdb6a62e3d297561U,
  0xbf008073befe7632U, 0xbd42cf80bd2686e3U, 0xbc219cd3be0e6bb0U, 0x3e2ee11f3d66521fU,
  0x3d87b056bd01d5d0U, 0x3db20ac53e4580dcU, 0xbd9719b33deb35bbU, 0xbe2f18cb3d92515bU,
  0xbe6844debe4e072cU, 0xbd96211cbd578083U, 0x3d04e749bd2f5d8aU, 0x3e0e32b93d751aa5U,
  0x3ce22b38bda8785eU, 0x3e174547bbffb3c6U, 0xbe69b5dd3e0c8909U, 0xbe4eafe93e0e54dcU,
  0xbe343d8b3d0361deU, 0x3d870ba9be3fed0dU, 0xbe587936bdc45f37U, 0x3cbcf8a53d460c16U,
  0x3cbb6a8ebde362b3U, 0xbdd5c6f5bdd73cb1U, 0xbe8d1c69bdbb7946U, 0x3e358abdbdd6faf8U,
  0x3e56db31be261df9U, 0x3d795c9abddd170eU, 0xbe11d1b13da381f5U, 0xbd8a5379bd9b7ae5U,
  0xbdf14336bdf3b615U, 0xbd543d51bdae847cU, 0xbe3c08e6be196a14U, 0x3d204dcfbd59f960U,
  0x3e265d2ebd81cdb4U, 0x3cefec90bdb8c7c7U, 0xbde899763d0acdd4U, 0xbcab913f3ba212f4U,
  0xbe3c97b3bddfcd77U, 0x3cc6cbc0be810886U, 0x3b2b7714bb163ff1U, 0xbda543edbd43b8f1U,
  0x3d3423f3bda2891aU, 0x3d55a8babd50db8cU, 0x3dc9ec833c66c603U, 0xbdd71112bccf9369U,
  0x3db2f01c3dd122deU, 0x3aafe0393b57f9cbU, 0xbd8c3bd03d5afebfU, 0x3e40c070bdbf0cc1U,
  0x3da8399fbd15bd91U, 0xbd2c064b3dc361f9U, 0xbd6b2517bd6c0248U, 0x3be69a80be327fc0U,
  0xbced20943e05ab21U, 0xbe19c23bbcbbc879U, 0xbe2a326abd8c8fbbU, 0x3e5e8f87be172637U,
  0x3e8022943e1da75cU, 0xbc7a47703dbf5293U, 0x3d46f7aebcca9a61U, 0xbc57a2ffbd49a071U,
  0x3d4789013d8f9ebaU, 0xbe7b0791be012176U, 0xbcb15b6ebd4a4852U, 0x3e1d68debe7230abU,
  0x3e568a313dcebf9fU, 0xbd003b033ddec2b9U, 0x3d2f94283b894d4fU, 0xbcee6916be508254U,
  0x3cce9032bd880bf7U, 0xbd05abba3e996549U, 0xbdcdfceb3dc039b6U, 0x3daaaa2dbca68b9fU,
  0xbdf553fcbe4b2ec9U, 0x3d24dc73bd3d2d68U, 0x3de9d24abda378d8U, 0x3e07d1fd3cbcaf33U,
  0x3e07affb3ae7841fU, 0x3c7227883e45a19fU, 0xbe2b2480bd304bb0U, 0xbd8569b0bd4a5d20U,
  0xbcba7daabdbc2739U, 0x3b8284ee3d4a49caU, 0x3dda10b5be150192U, 0x3dacbd3c3d4d495cU,
  0xbc2583813d817a0eU, 0xbd84b19c3eb017c5U, 0xbdca0ac639020109U, 0xbe547c3d3d6c9596U,
  0xbdd4cfe0be1d0e25U, 0xbb1b88e03d5a02bbU, 0x3de7b866be7693aaU, 0x3e4fba313da279aeU,
  0xbd1971b5bdd623b6U, 0xbe6294373d2ebc1eU, 0x3d188eb5bd874a77U, 0x3da45114bd22705eU,
  0xbd6abfc1be820ca5U, 0x3ce8b4c1be7e0653U, 0x3d8227fb3d9bc2d2U, 0xbd038492be09bf26U,
  0xbe2258a3be0fc24eU, 0x3b1c01a63d0bd501U, 0xbd1e5b9abe4e3ef3U, 0x3d108a1a3ccde7eeU,
  0x3e5c4302bdc0dedcU, 0xbcb3eb80bda5beb9U, 0xbdc0ebfd367b7fc0U, 0xbd4dd8803ce56869U,
  0xbcd7d141be269bf5U, 0xbd3282af3c9ba3abU, 0xbd9b3f6fbdc73993U, 0xbdbbc75fbda9de41U,
  0x3e2e38123e88d450U, 0xbd666ff6bdc25aafU, 0xbe0540babc8d3ffeU, 0xbd9b87f73dbf8f54U,
  0x3d0b884f3c91c757U, 0x3e0da0a93d8a1413U, 0xbc9d62e73e15d1b8U, 0xbd060e98bd90a23bU,
  0x3d2e444fbda2f689U, 0xbcd3db2c3ded114bU, 0xbdde6be6be8407f5U, 0x3ba6ac73bd0ed64aU,
  0x3d5a04db3d4578deU, 0x3db9e554bde3e743U, 0xbddca2d63d4b64b0U, 0xbdf42be3bdc54e8aU,
  0xbd9e0447bd270515U, 0x3b5335e03d02b863U, 0xbdc8b752be233703U, 0x3daf2191be0ad6cfU,
  0x3d91565abd9a0b55U, 0xbd579ec93d3ce069U, 0xbe6f2c603ce53a2fU, 0xbc1b9887bcd93cabU,
  0xbd7e2ba93d0c3563U, 0x3d7cbda23da71200U, 0xbe202a0cbe442ff3U, 0x3dae21633d9d4e27U,
  0x3a3565b63cf244f8U, 0xbce205b2bbf9200eU, 0xbc2e19cf3e206223U, 0x3d478186bd918687U,
  0xbdde9644be5d9b97U, 0xbd2ae13ebcd5d5ddU, 0x3daa1b57be07364aU, 0xbd6932c93cf9b952U,
  0x3d90e2653d7a3b78U, 0xbdc60b7f3dab091cU, 0xbd70ad90bd5f2384U, 0x3dd3ccddbc8e3838U,
  0xbbac32e9bb7570c6U, 0xbd8f1e263cf2e544U, 0x3d611671bd77b332U, 0x3d0c6435be42c1e7U,
  0xbd2c3aadbd117890U, 0x3d8012403e079979U, 0xbe8364223d334bcfU, 0x3dd3188dbd813f2cU,
  0x3d1d4c463d190823U, 0xbd560fef3c828e49U, 0xbcb66307bde0a1f2U, 0x3d74fcccbd3896b3U,
  0xbdc0eea5be3a515bU, 0xbe87747d3e5c9513U, 0x3d33ed08bd4c68a8U, 0xbe1dc4c0bd00a9b8U,
  0x3c00aca8bd5a9000U, 0xbc86c560be767eb9U, 0x3c4c4646bd3c89dbU, 0x3d8a20303d1e13f6U,
  0xbb780c09bd264969U, 0xbe7816413e8b1062U, 0x3d8316ffbd86b287U, 0xbd52d0e9be38723dU,
  0xbe244df2bdf3e482U, 0xbda044bbbe125bb3U, 0x3e53e091be595149U, 0x3ce11215bd8aa076U,
  0xbd1bb0b93d933944U, 0x3d4502a53dcf46b9U, 0x3cf783cb3d93000cU, 0x3e1c3a4cbdb80b24U,
  0x3e516fc33da4cd27U, 0xbd844ae03bde5d4aU, 0x3dadee6fbdd9510bU, 0x3df3328ebd1f6540U,
  0xbe16c734be359819U, 0x3d1635833e2d6e3fU, 0x3d39bc08bd8f8ae9U, 0xbe2ccbfdbd3fb74bU,
  0xbd816fcebbb17c70U, 0x38c93b39be2fa0abU, 0xbc499e03bbf059ccU, 0xbd0333873da9de66U,
  0xbd7c005abce8c59bU, 0xbd8b57a9bd980b98U, 0x3dab566fbd388865U, 0xbe36da65be3e9c7fU,
  0xbcc68e0e3e9586c3U, 0xbd903264bc9907deU, 0x3dd7a154be3f7ca5U, 0xbce06f91bcbc313dU,
  0x3dfd46c23d34e34bU, 0x3e5af195bdbb356aU, 0x3e5210753d158af4U, 0xbdf2d4b73e2f99abU,
  0xbe739a793c0b0b1fU, 0xbd6b17853d25d505U, 0xbd29967abe2c7c66U, 0x3df451c7bde1f5baU,
  0x3cdffde1be0dee04U, 0xbdff08eabe689252U, 0x3e3cef94bddb3004U, 0xbd25a7d7be306062U,
  0x3e3727ea3f023f0fU, 0x3dc5a5843de5e43eU, 0x3dca55e1bdbaf54fU, 0xbd8ec869bda51abdU,
  0x3e1c5d1b3e187360U, 0x3ea71f323db1ec52U, 0x3d8ac9193d828df2U, 0xbe40dd6f3d3dacf5U,
  0x3c18c8763e93cc3dU, 0xbce033ec3deac6d3U, 0xbdd907c1bde46c06U, 0x3e11016b3ddd7aa9U,
  0xbca52f8e3ce04bf5U, 0x3e90cca53c6ce546U, 0xbe903ade3e5e4b87U, 0xbeab18333dd04e48U,
  0xbeb9ca17beaf96d3U, 0xbd8361eabd3f9dd3U, 0xbed0a6b9be22e532U, 0x3d4cf5d83dc4d6e0U,
  0x3e20208f3e09548fU, 0x3ea3185b3e6398dfU, 0xbd5e3d193e3f2964U, 0xbe198ef43e108c8aU,
  0x3d06909b3daabf43U, 0xbd07fea03e7c943eU, 0xbe326a1abe866037U, 0x3d7c4e473e670798U,
  0x3d259a3dbc07375eU, 0x3ddc6fa13e2754cdU, 0xbda3afd53e76b177U, 0xbe3c14003dcd7f51U,
  0xbe94b3513d1e1530U, 0x3ca064a2bd150633U, 0xbe5b22edbdf72b55U, 0x3d58d9af3e4f246cU,
  0xbd8a1ce3be5efde4U, 0xbdf166eebe1a9accU, 0xbe3213ccbbf9432eU, 0xbe00d330bd4acc72U,
  0xbd4643dd3d3127adU, 0x3b9c4b9abe5fe1b4U, 0xbe1775ad3d570023U, 0xbde146e8be25a7f5U,
  0x3da0ab543d3be652U, 0x3e0281b7bdfb0566U, 0xbdd69fbc3d6da234U, 0x3e69fc8f3e0570c7U,
  0x3dbd0e55bde7546fU, 0x3cc5ae5c3c64fdc1U, 0xbe073100bd9362acU, 0x3dcffbcfbe362de1U,
  0xbd946b8cbd5462eaU, 0x3ddb365b3e2a11d2U, 0xbe3dc96d3b9a492bU, 0xbd2f158abb3ff504U,
  0x3c4335d8bc6c891aU, 0x3be2cec03d4ffb17U, 0xbd8ea7edbde638a1U, 0x3df00ec4bc9fefe7U,
  0xbe173e91bdc34b22U, 0x3d7164573e5a5482U, 0xbe14d91a3c4415ecU, 0xbe708a23bdb7e6eaU,
  0xbe53789a3d3ca21eU, 0x3d42073abcf58045U, 0xbdd25681be573b2cU, 0xbcb78e59bcbf099cU,
  0x3dcea7563dc90253U, 0x3cd5f1de3e619557U, 0xbe00b7a63e3a6d8dU, 0x3e4492b8be1e9885U,
  0xbcb8245cbd8d90dbU, 0xbd84d1073c139f0aU, 0x3dd78c5ebe12c143U, 0x3db3a7f5be3414ebU,
  0x3e08e6323d8d1c77U, 0x3d6a33353dcd3c03U, 0xbe8a54a43d75e3e9U, 0x3e43c7453d82c0b2U,
  0x3e2669eebc96dfb6U, 0x3d6be452bd366b5cU, 0x3db2eed0be251801U, 0xbe007b73be60aae2U,
  0xbb00c9a1bd69add5U, 0x3c1792bcbbc1f02bU, 0xbdf6e325bc200517U, 0x3dccef2e3de89b87U,
  0x3dbff34c3d15c845U, 0x3c6405f83d4e7f3fU, 0xbe72aea0bd683709U, 0x3c25de92bd1fe0b7U,
  0xbcdfb934bdab6ba8U, 0xbe97271e3eaa8349U, 0x3d636b8c3b69e692U, 0xbddf73cfbe88d8caU,
  0xbd7f329cbe46832dU, 0x3d68b33abe1a6bd8U, 0x3daa4632be42c8d5U, 0x3db499903decee87U,
  0x3d1316cabc22f90fU, 0xbe3229813e46466aU, 0x3d37467b3df9e951U, 0xbcd94bb8be213d78U,
  0xbd03bd81bd0f248fU, 0x399bc519bd8cdab7U, 0x3e0eb247be4851b3U, 0xbd0b452dbda84bdeU,
  0x3cb715b33d5f8fa5U, 0x3d97ba643c4bd15aU, 0xbe2377363dad3247U, 0x3e7c8831bd0d369eU,
  0x3e065aa0bdbb3d28U, 0x3d5320bc3dbd1b56U, 0x3cea59e7bc91c705U, 0xbd86f9ffbdade3a4U,
  0x3cf50a713c691ee4U, 0xbdf36d6a3e8e6bc4U, 0x3d45fce03e227939U, 0x3e214f32bded5cf3U,
  0x3d90c8703cd56591U, 0x3d8b4bdc3ddd2886U, 0x3e1a7096be113451U, 0xbd5c0d33bdb7e249U,
  0xbcefd25b3d820723U, 0x3de4a80fbdfca94cU, 0xbd55e0363d0bce10U, 0x3de10d58bc69c061U,
  0xbca6fa4dbdaadd8dU, 0x3d20927ebc357905U, 0x3dbfa529be0f3329U, 0x3c13e2bebea6716eU,
  0xbddb7a86bd264a25U, 0x3e347c26be23fbc9U, 0xbd7eaabfbd9e918bU, 0x3e1bf1aa3dea3f64U,
  0x3a5e7595bd03288dU, 0x3dba1af5bdad4d63U, 0xbda7c81ebd9cd3e2U, 0x3b27ddccbd98c815U,
  0xbb7e75d3bd813d1cU, 0xbe4c908d3e3567f4U, 0x3da7d1b1bd3aed4cU, 0xbdc1740ebe4659b0U,
  0xbe467c8bbdc1c0beU, 0xbd2d7de8bdc674afU, 0xbd902c9bbe0ff016U, 0xbd115ea23d3d8875U,
  0x3cf1a76a3d407c74U, 0xbdd891073da41077U, 0x3e3a16b93e14799fU, 0x3d2178f4be4498edU,
  0xbe992e13bdf95ee1U, 0x3b2fc500bce2f4a3U, 0x3dfcd667be3d775aU, 0xbd2b9babbd71cd16U,
  0xbd9e4c5cbd7ca548U, 0x3d241774be0d45caU, 0xbd9631dc3de4f3b3U, 0x3e654ababd60abdaU,
  0x3ccb56b33e1740ecU, 0xbd53614f3d0ec9d2U, 0xbcf77f3cbe44ef9fU, 0x3c390f34be0c8372U,
  0xbd4fb9efbd2e16adU, 0xbe37ecf8be26cdbeU, 0x3cc1f6a6bdc308bfU, 0x3d91bde3be31de88U,
  0x3e9788483e5efb56U, 0x3ac241c0bc8e070cU, 0xbe0a5bd23d736d11U, 0xbd9cb8fbbdc8c4f7U,
  0xbd981cfe3d54a0daU, 0xbe3542bf3dfc0804U, 0x3d92484abda8d8afU, 0xbce2965ebe7ccfc9U,
  0xbd58afa43d545a3fU, 0xbda3997b3d97e8f8U, 0x3d64cf4ebd759e1eU, 0xbd8b0c54bcf9c49dU,
  0xbd79eb523d4d2d8eU, 0x3da6a2733d4a97c0U, 0x3d3971453d6a62d5U, 0xbc82faa5bd08adf7U,
  0xbc816021bceb2374U, 0x3d546b873d094a49U, 0x3dcdad74be8953dcU, 0x3dcc258b3c8ede6fU,
  0xbe08e615bd7032a6U, 0xbe846420be32a44cU, 0x3e2ea865be009cc9U, 0xbea3e50bbe42575dU,
  0xbe9dcefe3e43052cU, 0x3d48220fbe55ee3fU, 0x3e224c543d3d91abU, 0xbe52ad823d355aedU,
  0xba84b0eabb677cbbU, 0x3e36b148be70fd9eU, 0x3ce09966bdb38098U, 0xbc179f813d646416U,
  0xbd20ccca3d5c9433U, 0xbd8a41963cef577cU, 0x3c68c5dfbc3a1407U, 0x3dc10e033c4ed008U,
  0x3d9642a7bdcd09ceU, 0x3db14104bce27526U, 0xbccff3ec3bf473a5U, 0xbe1d23103de16e2bU,
  0xbe6ac8f9bdeda904U, 0x3dab03ee3d4896f2U, 0xbe7d3bdd3d046725U, 0x3c8b9e6e3dbd18c9U,
  0x3d6a996dbc7039e6U, 0x3cd0e5f5bdb0d212U, 0x3ec01aa0be7eb007U, 0xbead97c9bdd34365U,
  0xbe4874953e8df2c9U, 0x3ba607003c2f773dU, 0x3e611177bde9b9e6U, 0xbe0cff5cbd888739U,
  0x3e174a9a3d0fab01U, 0x3e578807be09e383U, 0x3d2f94dd3db56893U, 0x3c8bc0fe3d188ed1U,
  0xbeabea423caa215fU, 0xbda1c1d63e186863U, 0xbde107b0be6585b0U, 0x3df1144e3ce944ffU,
  0xbe0bd447be187febU, 0x3e48ec1fbec23635U, 0xbe3998d33da71655U, 0xbde5d7433e16e95bU,
  0xbe237ef6bd7a3542U, 0x3c47d360be39e75aU, 0xbeb8195f3d3fd273U, 0xbd866b92bde45f3dU,
  0x3dde285c3e25c676U, 0x3e4bdab5be0c5455U, 0x3e6e30573d95824eU, 0xbdeffd1f3dce8e0dU,
  0xbe72501b3c531d27U, 0x3aa492003db4c8adU, 0x3db1cbc7be89f0cbU, 0xbc6cd5cbbd996bdfU,
  0x3d4ad01c3c7092f4U, 0x3d87087fbe43323dU, 0x3cdf33833e3a4e1aU, 0x3ccafc233e10a943U,
  0xbde5b17ebd6fe56aU, 0x3c0b9413bb7ab882U, 0xbe1fbb953c30d22aU, 0x3db95013bdea0dcfU,
  0xbe0bac8dbe0c3989U, 0x3d703510be42ac76U, 0xbe8a2696bd87cb09U, 0xbc91e14d3ce96701U,
  0xbcdb128bbdac4b8dU, 0xbd49e9d4bd83c463U, 0xbe37db5b3d07e919U, 0xbdb2d0a0bdb72389U,
  0x3dfd2ea73e145ad4U, 0xbd0774193df18576U, 0x3c626efb3e287961U, 0x3e8e939a3d6e9540U,
  0x3e66fb1b3e2847c3U, 0xbd8624023dab7d24U, 0xbce8d941bd4f3932U, 0xbd983a79bca77fe2U,
  0x3db6ec7c3e0d2d9cU, 0xbe0a463a3d88db99U, 0x3dbd15af3d077013U, 0x3e6b53a43d05c0c0U,
  0x3e9254073e88ab67U, 0x3d1839ae3d3cde37U, 0x3bf63b21bce95c0cU, 0x3d65e814bdadd780U,
  0x3d0afc4e3d7fc285U, 0xbd91d8b73cb073a5U, 0xbcf084e53cf7b100U, 0x3e44d2b2bd262439U,
  0x3e8e92473e67dd4bU, 0x3d6f8a123e19473cU, 0x3e17fc1bbcc96a36U, 0x3d2f3fe1bd1a3746U,
  0x3d958f2c3d576e76U, 0xbe32a2853e2e13e5U, 0xbc777768bbd8ed2fU, 0x3cb53336bd09f155U,
  0xbd1de052bd645047U, 0xbd62c13b3db55b13U, 0x3dc22e78bd1dbc55U, 0x3da1988fbd8eed92U,
  0x3dc1ce6b3d70473eU, 0xbde588303e6b257eU, 0xbe193a803dea5da9U, 0xbd640e9abe012e1cU,
  0x3bf2a6283d27d954U, 0x3d62d3d23dba0e8dU, 0x3b79290e3b926eafU, 0x3e5d25d53e1509c7U,
  0x3d1045c2bc163ccbU, 0xbd9a581c3eaa75aeU, 0xbe3073883ccb2e17U, 0xbe883d4d3ad8f06dU,
  0xbe733a5ebc951765U, 0xbd37b0d33d4f354cU, 0x3be5c34fbe1a941bU, 0x3e089ec63e4217b7U,
  0xbe47fc82be356487U, 0xbe63b5aebd3f4d57U, 0xbe49d23abe51e09aU, 0xbdfbadf7bd58d988U,
  0x3bb14152bee34288U, 0x3c8df7e4beaff1daU, 0xbdbd5b283dc27c51U, 0xbc871afe3cd3fa35U,
  0xbe1605efbda6d5e1U, 0xbe2b9aa13cbcc166U, 0xbea93556be579bfeU, 0xbe9cabbbbdc76553U,
  0xbde929b4be64713dU, 0x3d5303aebea98067U, 0xbd33a327bc1b2398U, 0x3d77746a3e3e3b9eU,
  0xbe3f5827be478edcU, 0xbeb99203be1f1db4U, 0xbe37a346be18fdbbU, 0xbe9d59d6bd3b10ffU,
  0x3db2f0733d149eebU, 0x3d643626be2fd919U, 0xbd9d42163dc1d100U, 0xbdb211893d7c71fdU,
  0xbda380fcbd2e3befU, 0xbd77d3c7be1e632aU, 0xbd6e3946bd328635U, 0xbc910cffbda06974U,
  0xbe0380303d628c71U, 0xbc2825debe4d8b3bU, 0xbe06e687be105557U, 0xbe18637abd3b968cU,
  0x3b376fbbbcedbfd9U, 0xbe739241be950dd2U, 0xbd8d6596bd67fe36U, 0xbd41a3efbe7e0236U,
  0x3dd7a9cb3e761f4fU, 0xbd37a440bd455186U, 0xbdf4f445bce76dd3U, 0xbe497702bc7e31c1U,
  0x3c19fb9e3db1cf6fU, 0xbe45cdfbbe793507U, 0x3de00cdabdb42ca7U, 0x3dbb44dcbea99c19U,
  0x3e6bd3ae3ea2b1b5U, 0xbb8871003e4f21b6U, 0xbb1fb5a5be18dc2eU, 0xbcec3319bdf2b208U,
  0x3d02e56fbd76cf47U, 0xbd47f2ccbe4a64e0U, 0xbcddf4eebd27863fU, 0x3d981339be7dfdf8U,
  0x3e1f049e3e3d4e1cU, 0x3d98e83b3c011450U, 0xbb8657cfbe51bc83U, 0x3c1eb069be547a81U,
  0x3d274ad23de903ebU, 0x3df264283da5c975U, 0xbe2f08cbbcf2c0a0U, 0xbde9f864bdbde156U,
  0x3d452e263e5c7f07U, 0x3d17443a3e619c24U, 0xbd53d6bcbe321103U, 0xbc6f9c6e3e05384fU,
  0x3e0e209bbcaa0656U, 0x3e2eebe83e40ef9bU, 0xbe4efd6d3cfd8dd9U, 0xbe0ea5e6bc644e87U,
  0xbe0ca80dbde3f37bU, 0x3da6b7f43e252698U, 0xbcab87ffbea9b9d8U, 0x3ddd37ec3dec7ab5U,
  0x3df574e33d675919U, 0x3e500b3f3e7b7599U, 0xbdce8f8b3e1b7796U, 0xbc60cfd63d6c6bdbU,
  0xbd91e3d63cc16c7fU, 0xbd5e435f3e011e60U, 0x3cca9220be2a10e0U, 0x3dc9f9903e0db213U,
  0x3dfc6fa7bd7767b4U, 0x3dbefd683e63e282U, 0xbd64b2093e4a65faU, 0xbe30eb593ca3941fU,
  0xbdbf70efbd0376c2U, 0xbd8aefd83d85ffa9U, 0xbd137244be30ed73U, 0x3de461dc3d92a5e2U,
  0xbd5f4684bd826dfeU, 0x3d1ed7493d885ed7U, 0xbddd8a373d82720bU, 0xbce94cc43db4b2c0U,
  0x3df547013ceef7c6U, 0x3ca5b4d5bcdfbaa0U, 0x3d4b61debdc7bd2dU, 0x3d8662403db812e3U,
  0xbe9a22bdbe3f6a29U, 0xbeef7729bde1c294U, 0xbe1eab00bea1e949U, 0xbdf82132bdd98c6dU,
  0x3cb0e113be3daaf8U, 0x3d9dfe0cbebcc7ceU, 0xbe20a50c3d9f6569U, 0xbdf36b583c900cfcU,
  0xbe47b819be086a18U, 0xbeab07f53e64e2ecU, 0x3e6ff3f5be6c2570U, 0xbe32c5e8bd9b50cbU,
  0xbe48e3d2bebce4aeU, 0xbbe56f00bdeb24d7U, 0x3df4e90c3d4ce4daU, 0xbdac84a7bcdc8dcbU,
  0x3e0076793b7ae9e7U, 0x3dcc8aec3e9a7d76U, 0x3e49844b3d9003d9U, 0xbe9f6bf73da30790U,
  0xbeea404dbe00a186U, 0xbd42d2603c402d52U, 0x3dd187f9bdc7faa8U, 0x3d4f728b3d960557U,
  0xbd22dfb63d34376fU, 0xbe3b901fbe7a4e63U, 0xbdafa7e0bd91f893U, 0x3e3ff9bb3c19c0d6U,
  0x3e5662023cb16183U, 0xbcfa3e30bcbbeb6fU, 0xbe49c3553d14ed77U, 0xbe0e51d8bb89843bU,
  0xbd85812fbc19f0c0U, 0xbdc10056beb738feU, 0xbe6be23fbdcb5ddcU, 0x3e169fe53d945e78U,
  0x3e016f3bbbd12818U, 0xbd6b9306bce9ce83U, 0xbe1f9ecb3d9447f7U, 0xbdf8b6e1bdcbe4dbU,
  0xbe0f0b26bdc7275cU, 0xbe586735be078871U, 0xbd2766f1be4bf0ddU, 0x3ccc37c4bbee35aaU,
  0x3af3f1cbbdb0e982U, 0x3d77cad6be677f06U, 0xbe2e865bbd38a289U, 0xbe043900bd6b56c3U,
  0x3d6fb7993d289a46U, 0x3d2753063d4236b9U, 0xbdd5ab833dd737dfU, 0x3e225f7f3bb108d1U,
  0x3e0b62543d36a3fcU, 0x3d0ed0a63e073648U, 0x3d016d2d3b5a12f3U, 0x3dae3b023c9fc7f8U,
  0x3d6bbaeb3e067e4dU, 0xbcac2f363dc72326U, 0xbe25c1953ddbbf3cU, 0x3e62bf17bdf6284bU,
  0x3e1f52393df4a2f5U, 0x3cca4e7d3e33012bU, 0x3e3d3c823d16178bU, 0xbd591853be365c42U,
  0xbcdb07303d247e4fU, 0xbc640f8f3c024b84U, 0xbddfd7543d35e9daU, 0x3e9fad61bdf03645U,
  0x3ea74e7b3dde0032U, 0x3cbb8d963e0874e3U, 0x3d2cfda93da968a2U, 0xbbe8fe47be2476adU,
  0xbc8027533ca3a9e8U, 0x3d08d8633dc715abU, 0x3e3a6227bd3d173eU, 0xbe268737bceb5cf7U,
  0xbdabd0db3cf142ecU, 0x3c0fdd20bcd1294cU, 0x3e3778eabd7b0e9dU, 0xbd43f9b3bd4ac17fU,
  0x3d28a67d3c160059U, 0x3d9e87ed3da33318U, 0x3d9c010e3de83b61U, 0xbe1943853d53b903U,
  0xbe88869ebe55ee45U, 0x3caa3391bd2ed67bU, 0x3db97c5fbe9daed2U, 0x3d9c7b01bd8d188bU,
  0xbaf0d728bc01239aU, 0x3d6ee0eebe218ca7U, 0xbdeae2da3d1b285cU, 0x3d25d2443dbdd377U,
  0xbe80dee3be630a20U, 0x3d93aa34bdf93c87U, 0xbdeba413bdb783eeU, 0xbbe4996ebd28c329U,
  0x3d610b28bd30a75eU, 0xbe5de40e3d7ddbffU, 0x3cdf883ebdefa537U, 0x3dea6dadbe8c095fU,
  0x3d5705903da794a9U, 0x3c3663c8bd29de0aU, 0x3d4a8e89bc92842bU, 0xbcae571cbd3710d5U,
  0x3dc75ce93d9851c9U, 0xbb410de73dc0637cU, 0x3e13c7333e11b35eU, 0x3dbd9bacbdb5d71fU,
  0x3c8065d9bd468772U, 0xbc0622e8bd099e67U, 0xbd408583bda7288bU, 0xbd33a769be0970b7U,
  0xbce3d5243d9fd3c6U, 0x3d109ce63c584b06U, 0xbd86d5083ccd6962U, 0x3e4336a7bcf34b07U,
  0x3ddb480d3b8ca2ffU, 0xbcd27ba03d816740U, 0xbd8be6313c20e433U, 0xbdc8838fbe85278aU,
  0x3da0c8563d6c0287U, 0xbd1645ab3e0464bfU, 0xbdd103a33da46b78U, 0x39b0f429bceffedfU,
  0x3e2da5ea3e36be1cU, 0xbd2322803e2741f8U, 0xbd826c3dbdae65c5U, 0xbd6dedbb3d6ec0e3U,
  0x3bded5fd3d1b3dc4U, 0xbd34d9a23e2e00efU, 0xbe18e324bd07555dU, 0x3c701717bc9ae62aU,
  0xbc86a3ddbdb25f63U, 0xbb2178b43d2df01fU, 0xbdb443083d655c6dU, 0x3ba50e143da81881U,
  0x3b1eee623d1a8791U, 0xbd8cc5893e3b42e0U, 0xbd019f403d960752U, 0xbd595013be2220f6U,
  0xbdddb7c1bd1a1c34U, 0xba2ad8bebcb16797U, 0x3dff2138bd5325a5U, 0x3da40ac9bb178a02U,
  0x3d95ba5bbbe1bdd9U, 0x3c1f6d9a3e05f146U, 0xbe876af63e303646U, 0x3e934786bd8af0beU,
  0x3e9447433dbead09U, 0x3ae973003d8e1a41U, 0x3d25c12e3db61b3dU, 0xbdfbeb4ebe385d47U,
  0x3ccdbad0bd4f3bdcU, 0x3c8cad62be3f1133U, 0xbe948920bd2b9c95U, 0x3e50dd213d857bbbU,
  0x3e8c6ecf3d97325cU, 0xbd981bbfbd797208U, 0xbe3ad7613cb6c031U, 0xbdcf1064bdf46271U,
  0xbd62da64bdc767a4U, 0xbe07e0d2bd9ed347U, 0xbe679f67be26e63eU, 0x3e5bee333d2d279bU,
  0x3e935b99bd79c5c2U, 0x3cd4f68fbe0ada97U, 0xbe8529ec3e318354U, 0xbd3d426dbcb9dc60U,
  0x3c29e7dcbcabf7b0U, 0xbdce88243e3606f4U, 0xbdd0ad51bc54d54cU, 0xbd944129bdcd016aU,
  0x3deddb5cbd4e2929U, 0x3d2c72babca3efeaU, 0x3e37d5a4bca8b063U, 0x3e1aeadb3de05cbcU,
  0xbd5e9bbf3bd6a851U, 0xbe2cc9513e9b4232U, 0xbd2d64903e3bf4ccU, 0x3e509757bd12adeaU,
  0x3e3da9c73e24d712U, 0xbc68cd883ddcb33aU, 0x3e95b3c0be22b63eU, 0x3c85ca353c914179U,
  0x3dc1d00c3d3c6d99U, 0x3e04b8fc3d0a135bU, 0xbe75f0743e254cf0U, 0x3e94deb43d3fa12cU,
  0x3e98f9193e04c09fU, 0x3ca2a6d03ca012f0U, 0x3cdeb02b3dd04d3aU, 0xbdeda4e3be43dd42U,
  0xbe135bf9bd9dfc92U, 0xbdd00cb3bda1df1fU, 0xbdb22597be2bb45eU, 0xbe7cb559bd806ab7U,
  0xbd96e030be5b0689U, 0xbda56eddbe3fa18aU, 0xbe0528d8bda77e39U, 0x3c52bfbe3dc46414U,
  0xbe2d6b29be182ef6U, 0xbea51d0a3e266260U, 0x3e3445933c746561U, 0xbe89a6f7be824fc9U,
  0xbe62ae5fbe51d4c1U, 0xbd831740be389fb1U, 0x3da5c39a3b85e684U, 0x3cdca1613db136ceU,
  0x3ce31e773da387cdU, 0xbdc496c53e48c475U, 0x3deface43d4dbbc9U, 0x3da191e2bdcfedf9U,
  0xbe0238f33d5631aaU, 0xbb06ff60bd93f457U, 0x3e6c068ebdaee078U, 0x3d536621bd64db8dU,
  0xbdb76435bd383c16U, 0x3b32dac6be9bfbeeU, 0xbd63ed53bd06d655U, 0x3ce38514be2b1eb4U,
  0x3d87a6073df968feU, 0x3d74d1823d4afd1eU, 0xbe3751db3c42bb6cU, 0xbd806d21be23c6b4U,
  0x3c10806a3db398fbU, 0x36d6ce0cbe604598U, 0xbe09d911bd264d93U, 0x3ca529e4bd574dfdU,
  0x3c84da8ebd96ecebU, 0x3c2ee8783cc15a07U, 0xbe1ce6bebe1e4bf0U, 0x3d2279edbdbf9ff5U,
  0x3d9484bfbc84a2dbU, 0x3d732c4dbcfc81c7U, 0xbe4cf3a13ddcf9a7U, 0xbd8f36cc3d88fcf2U,
  0xbd9d3417bdb9e0feU, 0x3c50ce403db934caU, 0xbe0832e8bdcce89cU, 0xbcef5737bd9a6528U,
  0x3d0b19783da09f3eU, 0x3db712003d50ca56U, 0xbe54cec83d567316U, 0xbcd3a36cbd661411U,
  0xbdbfa700bc8abc25U, 0x3d3567b03d658e40U, 0xbdc29b41bdf6bb4bU, 0x3d62ba21be135759U,
  0x3dd73491bcc7a4e7U, 0xbd11daee3dd9ce4dU, 0xbe8781af3d8b91f9U, 0xbd87af97bb0cda16U,
  0xbe1ba5adbd0e0660U, 0x3d35bd923da8cd26U, 0xbe143c5abc8ad17bU, 0x3d928356bdd53424U,
  0x3c8d42763d1ae434U, 0x3cd625f13e0201cbU, 0xbe1e46423d367bffU, 0x3dd8e344bd7884b3U,
  0xbaadcbaa3dcb0372U, 0xbbf518903d228659U, 0xbb3434a3be15f94fU, 0x3d80f324bc112798U,
  0x3d6d209d3d07a20fU, 0x3e07bfad3db5eb08U, 0xbe628202bd143dd5U, 0x3cea93dc3ceb89a2U,
  0xbde9d300bea8795eU, 0xbd42ba5fbd927260U, 0xbdcaa6f9bdc85d30U, 0x3b0be21d3d4ffd21U,
  0xbd5d10b8bd5d9a74U, 0xbd1159973e1984f0U, 0xbd073e713c5845ebU, 0xbe222473bdaa8521U,
  0xbd816e49bdc9ea9eU, 0x3d8f40f2be060495U, 0xbdda7e6cbddd3af2U, 0x3de220093b90fb2aU,
  0xbce970e7bdf45595U, 0xbdbb05ea3cf1edbaU, 0xbc03b2d33d057bfaU, 0xbdf9fa323d44db72U,
  0xbc9c51193e014345U, 0xbd806c24bd31e314U, 0x3dc26dcabda0d670U, 0x3cf14ae3bd0b0fdcU,
  0x3bf9af7abd23b60cU, 0x3dbf8d94bdcc7ce3U, 0xbe9cd1b93d954da9U, 0x3e905c453c5eb8b5U,
  0x3ec953f13d268e6aU, 0x3c271560bd5394d9U, 0xbdde36213d3e839bU, 0xbe12d1f7be0621c8U,
  0xbd57002fbde500c0U, 0xbe1e1768bcb4112aU, 0xbe961404bdab43c8U, 0x3e0c97103bb8cc1eU,
  0x3eb6f6a0bd9e0a7bU, 0xbd90de4abe14bb74U, 0xbe7a55fe3d4cd58bU, 0xbd7848f63cdc3d6cU,
  0xbe24d6eabe1abf5cU, 0xbe3a88973b0fee68U, 0xbd147badbe478056U, 0x3d93a1e6bd82b085U,
  0x3e088765be8d512eU, 0x3d8691ddbe8a36b7U, 0xbe05d1cd3d8e7e9fU, 0xbe26ea723c2a4dd0U,
  0x3d99d2eb3c87b9cbU, 0x3b27719f3e824644U, 0xbd5fb3d23d9f7e92U, 0x3dd09481bde63ac0U,
  0x3e2d59fdbbcc29a2U, 0xbd2b28083ca951daU, 0x3e5a2385be0861f2U, 0xbc1b62fd3d2f7ce3U,
  0x3d926c753d6c30e6U, 0xbc1660fd3d62af24U, 0xbd94f3263d51faf9U, 0x3e6c1750bd1ce344U,
  0x3e155d693dc75262U, 0x3d8d17d33e1efc92U, 0x3d3b445dbd2272d1U, 0xbcc7415dbd8a58ebU,
  0x3e00ec313d9a2f2cU, 0xbdaa9d4fbdbe2298U, 0xbe4a17033b45c5b6U, 0x3e9e7870bd332d94U,
  0x3e4d85e53ca15c83U, 0x3baaa1903d4aab2fU, 0xbc9a50fa3e15f600U, 0xbe4639e7be067915U,
  0xbd282d363cceae11U, 0xbe0968ac3e687a14U, 0x3d3c815fbd0e177aU, 0xbe385a8ebe128e1aU,
  0xbda2c2d5be1f0ecfU, 0xba3412cc3c56c3b5U, 0x3d203226bd9d70c0U, 0xbc727a1f3d3f73abU,
  0xbbdf6b723d3abff3U, 0xbe2d6ece3e0fc8d4U, 0xbb96256f3d51d314U, 0xbdb25962bdde606bU,
  0xbe2ab01ebdc88396U, 0x3d14486cbdc1da83U, 0x3de571e4bd42d37aU, 0x3d6bc914bc010869U,
  0xbb6d2a403d39579aU, 0xbd85d7983e4d7278U, 0xbd9c88df3d070546U, 0x3deefe36bd8a333aU,
  0xbc4231bebdd3dd93U, 0xbce663ecbcf0435fU, 0x3d40839fbd9b9562U, 0x3cb01243bd5a0693U,
  0x3d7a38e53d848e24U, 0x3e4929f0bd921d6eU, 0x3daff8023dce68c9U, 0xbd8335c4bd0e366cU,
  0xbe2f6d6abd8567f5U, 0xbd303c4b3d8ee392U, 0x3dcaeab0be6303a4U, 0xbc2b75a4be06da2cU,
  0x3caeac0bbdbfa71fU, 0x3e83ec9d3d818901U, 0xbcb48d983cd78f1eU, 0xbda4de863e1a88b5U,
  0xbe93e6eabd846f26U, 0xbd89a552bc656c5aU, 0xbd0a77f9be18e52eU, 0xbcbfed3d3da225daU,
  0xbdb6d081bcbb85cdU, 0x3d10229b3e17186aU, 0x3d26239d3b8dae11U, 0xbe7662253d2018abU,
  0xbe00868bbcf23158U, 0x3d81e82abd6a2070U, 0x3d2393b7bd98aaefU, 0xbcd5fc76bd12fe23U,
  0x3d9fba34bd0051e1U, 0x3d2b6d22bc98672fU, 0x3e2390363e138355U, 0x3bfe23a8bccfbf3eU,
  0xbdcabb9bbd95daedU, 0xbcb3c0e03cb85a67U, 0x3e16d249be25fe21U, 0xbdc8ff68bea3214cU,
  0xbd808fefbd7e8a74U, 0x3e32fc36bed88797U, 0xbe7519bb3da9cad1U, 0x3e6a1aa83e0cf0b5U,
  0x3d257c05be5dea8aU, 0xbd200a28bd6e6ab1U, 0xbe5ab49dbe04f439U, 0x3d810efcbea15065U,
  0xbe7aa344be5b31baU, 0xbd82edd6bd308727U, 0x3d1bb363be6135d2U, 0xbdeb9cc9bdd65b65U,
  0xbd84e8f8bd6ea8ebU, 0xbc8da6ddbe4e83eaU, 0xbd154108be074621U, 0xbe4af016be26b35bU,
  0xbd80495b3d4f8a17U, 0xbeaada103e74e430U, 0x3e983c313dbdb8f5U, 0x3c8e816abe767774U,
  0xbe5c8be9bd858390U, 0xbd54d208bd0111c9U, 0x3e32a749be9c839fU, 0xbd7e3e70be04e59cU,
  0x3d49a70e3dc0070bU, 0x3d4ee4243d6f2e4fU, 0xbcceef153df14e91U, 0x3e9ae43a3dc779f7U,
  0x3e0862c83c44f8beU, 0x3c8793ba3d30883aU, 0x3e61552ebe040720U, 0x3dc6c7f4be1d948aU,
  0x3d3260f3b94d722aU, 0x3d8ba5e13df10831U, 0xbdd8690abdb35c6fU, 0x3e74c9873ddd7f65U,
  0x3e3f1943bd082264U, 0x3bf465103d8f375fU, 0xbe10f76dbdb0ca1aU, 0xbd4a72543be8c04dU,
  0xbb86483abde560faU, 0xbd52ca213c26871aU, 0xbdb1bc2c3ca2ff98U, 0xbe2bf3e33d3fe177U,
  0xbe3c89bdbdd6eb40U, 0x3da37cb1be31ea47U, 0xbe36b171bd52d3ceU, 0x3d7cd6e63bacd458U,
  0xbe7983cbbe1e82cfU, 0xbda2f48cbe34d279U, 0xbe01848cbe2de6b9U, 0xbdfbdf9cbc4d6337U,
  0x3cd4eca23e0052faU, 0xbcbf2b1cbe3e8e2eU, 0xbe0ef0e8bc8ee256U, 0xbe22a6963db0898dU,
  0xbe171194bd644afcU, 0xbeac11abbdf64c19U, 0xbc6ad2b6be7a6cc8U, 0x3d9c3decbe1d9839U,
  0x3e701b9d3ea81e75U, 0x3cda571cbd4657bbU, 0x3ce5a1fb3d291a3eU, 0xbcb5d65ebb612317U,
  0xbe866d60be09a079U, 0xbe4f4dffbe734b05U, 0xbdeaec50be12b6e6U, 0xbe4e282dbdb00764U,
  0xbe014bf73e347756U, 0x3d0b6e8ebe78c6c8U, 0xbd830a24bca216a7U, 0xbda60f3c3d8fd1e3U,
  0x3cf4a3403d0f4804U, 0xbe1f013cbdde55cbU, 0xbd4faacdbe8d2294U, 0x3c9a9cdebe1ae95bU,
  0x3e40fa2b3e89ec78U, 0x3d0091fa3ddf2861U, 0x3d17615d3b1a53b0U, 0x3d904bf0be0cf7b2U,
  0x3e12e6623ca561abU, 0xbd06b3243e66e5ecU, 0x3d6419bfbd42a4e1U, 0xbd854017bd5b21feU,
  0x3e429cd73e32c368U, 0xbd7c9f083e3e5690U, 0x3d85514fbdf116d0U, 0x3d2002c53e32d13eU,
  0x3ca3d2d53d383e18U, 0xbdd0c495be416c4bU, 0x3e5bf005be73cac5U, 0x3d669bc7bd51d928U,
  0x3e34f9c63e7f56dcU, 0xbd2f68433e1ca7aaU, 0x3d9bc8763d9e410cU, 0xbdc36076be0f27d0U,
  0x3db9e26b3cfcaaacU, 0x3dde9ea7bdee881eU, 0x3d373e923bd38180U, 0xbb96848e3ab6bd8cU,
  0x3e060092bc8fe7a0U, 0xbca9dade3e3ee2feU, 0xbdb85a61bd50059bU, 0x3df8138ebcbede16U,
  0x3dd2ee413ccd0e0bU, 0x3d193c633d872ea1U, 0xbea58d263cccf00eU, 0xbcb97ffc3d9ed3bfU,
  0xbdd15f1cbe804cabU, 0xbd6093c2bd9da6fdU, 0xbe4e1c3cbe27eca4U, 0xbd2dee993d44aef6U,
  0xbd1fe2813c84cd26U, 0xbccb8dbcbe98ce62U, 0x3d534c79bde9e2ceU, 0xbba7faf1bdba8340U,
  0x3d59fb733e69668aU, 0xbc578160bc21d28cU, 0x3d4d8220bd75338aU, 0x3cacd9f0bd4f38abU,
  0xbd0d959c3c6e1217U, 0xbc0aa2eb3b816596U, 0xbdc1b41a3d18a978U, 0xbe3f5a04bd4c1ce7U,
  0x3b01c0dabd8f47aaU, 0xbcb2242d3da74888U, 0xbe33437bbe2f1c7dU, 0x3d6479cd3d9297e0U,
  0xbd3ac9373d2da7e1U, 0xbd4412fdbd0f9af7U, 0xbe6e833e3de902d0U, 0xbbeeb3523cea348bU,
  0xbcf4ec003c46c4c0U, 0x3c8dd999bc7d5b6dU, 0xbc97ce8abddfc5aeU, 0xbdcae27ebcf63cbbU,
  0x3e1751dd3e061c5dU, 0xbc31f93a3e0b5af4U, 0xbd21ab9d3da1a09bU, 0x3e76861cbc458de4U,
  0x3e3cd1d23d3fa239U, 0xbc7cb4483d85a7a2U, 0xbcbe675dbdca7ee8U, 0x3bb6ddb83c9156a1U,
  0x3dd86566bd764cbeU, 0xbe5c33f83e0ff022U, 0xbe65bebd3b7a8182U, 0x3e2231da3be2335aU,
  0x3e46be713d8edddfU, 0xbcefaf763d73f761U, 0xbe2d3a2fbc3bcbe0U, 0x3bef373fbde653c9U,
  0xbd2f45e63d2f76f1U, 0xbe130bee3d2eb233U, 0xbdfc688fbda25fc8U, 0x3e2e6bfbbdcc990fU,
  0x3e373a2a3dfb20ceU, 0x3c8a3f503c8d7ec3U, 0xbda42098bd313294U, 0xbcebc218bdc056bcU,
  0xbd7ddfb83c762fb7U, 0xbe49fef33eb0b4f7U, 0xbe1a31683cbb736cU, 0x3cae4233bd8beb6aU,
  0x3bf40745be184dbfU, 0x3d09ea4a3cfce760U, 0x3d3b4b76bca6a31eU, 0x3d9b9af73dc03a19U,
  0xbd9ba5d1bc286964U, 0xbe00b62e3ee7cfd2U, 0xbe5a1982bdc75daeU, 0xbc98dbdebe39c7ceU,
  0xbd5d0a96bd85db84U, 0xbc164fd63d5c392cU, 0x3d29cd72bdc32a1aU, 0x3d9771c73e14777aU,
  0xbd112ab73cbd7cffU, 0xbd845c1c3eb7b545U, 0xbd506e1cbcac17d2U, 0xbe38e819bd8f29b1U,
  0xbc06920abe0f6057U, 0x3d114995bc88eabbU, 0x3dc34fccbe1a6482U, 0x3df4dbef3e1a9eefU,
  0x3dd46b6c3dc2cd8dU, 0xbda10d44be81a2b1U, 0x3e2831fc3d20d180U, 0xbd5be2ffbe82823fU,
  0xbeaa329b3d385fdfU, 0x3c405cc83c525ff6U, 0x3c963276be1edfdeU, 0xbcbd2f04bea640b9U,
  0x3ce33bf3bc4ef9c5U, 0x3e25337bbe5baa4eU, 0x3d70e9c23dec8fe7U, 0xbe0dec133cb2efc9U,
  0xbe987001bce4c653U, 0xbd0220673df53308U, 0x3cc49eb4be8996f3U, 0x3e088bb8bd522f5aU,
  0x3d5e77c13dabb726U, 0x3e386e593dba7aecU, 0x3d84aa803bedf431U, 0xbe01ddf33dc18ad8U,
  0xbec45718bdee05abU, 0xbcbad9d83d67a37dU, 0xbd9237babe4b0fe4U, 0x3da1470ebbc1cc6fU,
  0x3da8dc703b4d0c0fU, 0x3d5f50adbd8c8273U, 0x3de195dc3d181e7dU, 0xbdbdb344be0a3d4bU,
  0xbee83146bd7ce11bU, 0x3d081e703ada27efU, 0x3d687de4beb44409U, 0xbd4cacc7be657d85U,
  0x3e07a77d3d6a0a43U, 0x3e24b671be3a9a6bU, 0xbc8cab4fbc9ed043U, 0x3d6e41543d8d5e01U,
  0xbeb21de6be8784a3U, 0xbd8507b9bc8b9589U, 0xbe07cf2fbe9e0696U, 0x3cee3b6ebe8179aeU,
  0x3dbcd3e8bb83e285U, 0x3e02ed15be23b8aaU, 0xbd5d52f0bc9751cfU, 0x3d88c1bfbca07599U,
  0xbc51073c3ad1bd46U, 0x3d5b6f12bc62fb1cU, 0xbca66fb6bdf58594U, 0xbbfea739be50d66aU,
  0x3df138af3d85a110U, 0x3d7ba234bd12ffe9U, 0x3d0188f43d3a9a4fU, 0xbdb05335bd4e3e04U,
  0xbf11d3efbe1f2f50U, 0xbd62e6c03d1964bcU, 0x3df5c98abe89c7a7U, 0x3d419b56be98be4aU,
  0x3e204eb33dff42c7U, 0x3dbcd74fbd3b62c7U, 0xbcf7f09e3d4da108U, 0x3e680b983daa650eU,
  0xbdf0e4debe0915c5U, 0xbd8c13e83bdb7163U, 0x3d95a5fbbe84b405U, 0x3d87dfd3be5a5546U,
  0x3c71e7f4bb8c7564U, 0x3e535d953e2a1e8aU, 0xbdeb35863b379d10U, 0x3deddad63dc1b456U,
  0x3c9e6a45bd3b38f3U, 0x3d3cd14a3d26f063U, 0xbbd10f7cbdc9cd84U, 0x3c07d7ba3b376ab6U,
  0xbd9d72dfbdb989a5U, 0xbd99fe75bc7a6cdeU, 0x3db37543bd3b2b25U, 0xbd8c78a93ca7e551U,
  0xbda7b6e8bdeee66aU, 0x3c4ecd7abd757551U, 0x3d02f1d0be35929aU, 0x3c7d0b2c3b6e28b5U,
  0xbdc03ca8be027f20U, 0xbdfd84ecbe268624U, 0xbd15aeacbc84ec90U, 0xbc664cbdbdb016d2U,
  0xbdf677bcbaa89f10U, 0xbb9b1de7bd701c35U, 0x3cb4a6d7be2b4e71U, 0xbe16221fbdff2108U,
  0x3d8ad7c0bc8d95f1U, 0x3da458cd3c3e6311U, 0x3bcd10be3c3e9218U, 0xbd6efaa4bcfb01abU,
  0x3c8be9bcbd839f73U, 0x3de10eaa3d91b6bfU, 0xbc5cc8bebc7c25edU, 0xbc83fd2cbdee55d0U,
  0x3d441d8a3d81ba65U, 0xbd05d1babd2cee59U, 0x3ca6074abd27c88fU, 0xbbe16aa1bb8982abU,
  0x3d292bad3dd085b1U, 0x3cc2a4243a1cf638U, 0xbca998cb3d69dce5U, 0x3daebbe2bd4a1f9cU,
  0x3d3403fb3d8eff15U, 0xbdfaae06ba110b64U, 0x3d3c3a45bc33ca6eU, 0x3c7529c5bd58ed1aU,
  0x3d8c1fe23cd9429cU, 0xbc63734bbd12b1dbU, 0xbd0f00f9bd386b36U, 0xbd8cced5bdc31df6U,
  0xbb615279bbd262deU, 0xbc8dec54bcd6318aU, 0xbd53c93fbd1e8f5dU, 0xbc45dda1bc09ae14U,
  0x3d901e84bd8a7a00U, 0x3cb4da503d9c5dfbU, 0xbc360c52bc5c6258U, 0xbd06d1d4bb544eb6U,
  0xbd3d1bc6bd58313aU, 0xbcf24b463d1edb9cU, 0xbd1d0686bd5ae983U, 0x3d8b6e00bc2c0280U,
  0xbd4b3244bd619626U, 0xbb516c8cbd10490fU, 0xbc1ef71bba236bc0U, 0x3d5509b8bcb49f8bU,
  0xbd9a64c83be44686U, 0x3ccac88ebac97f57U, 0xbc4d0d10bbb88fa2U, 0x3d42355f3d15a76fU,
  0xb9db79253ca7cac3U, 0xbdc1f4d13cbe3036U, 0xbcaa009cbdfb04f0U, 0x3c5129c83c806ba5U,
  0xbb5150c7bd45d10cU, 0xbd75cb47ba50b13eU, 0xbd16183e3d825c87U, 0x3be2139d3de457edU,
  0x3d33a96dbcdeca69U, 0x3d1537a23d43feb1U, 0xbd826d68bcf38983U, 0x3d6e9e9abdeecf88U,
  0x3c40875d3d05d42eU, 0xbdf6d121be00ec84U, 0xbd54ec21bd2643feU, 0x3cd991f53d768b03U,
  0xbddb0970bdb2293eU, 0xbd7c19943dee0f39U, 0x3d496f6e3d681a1aU, 0x3e167ac43d8f5f19U,
  0x3cbf246b3e41caedU, 0xbd6e5b77bdf9b894U, 0x3d81132b3d12f182U, 0x3d0fe1fd3dafbaf3U,
  0xbe116a3fbd299510U, 0xbc388a863c2fc096U, 0xbdad1ef3bd641c36U, 0xbea2116bbe627aefU,
  0xbd5ce72fbe3be942U, 0xbd3936123c98faa4U, 0x3c2b373b3c134225U, 0xbc79ce46bc9c336aU,
  0xbc540b91bc4259e8U, 0xbc9fbda43c16c6daU, 0xbc78c2a23d203c4fU, 0xbc14e4a33cc96bb9U,
  0x3cce261ebc459c5aU, 0x3c1639033cf3f444U, 0xbb0cf8e83c612f50U, 0x3cb6f03cbada6770U,
  0x3d5818733cd99e0aU, 0xbc6a5c723c1691c0U, 0x3c29de443c1573e8U, 0x3b77567d3c522f00U,
  0xbce7f56abc4d8aa8U, 0xbc6eb50a3c0d69b0U, 0xbca919d2bc9a2baaU, 0xbc845f26bba7bdc8U,
  0xbbb0e9d0bcf4272eU, 0xbb05cd503b906e24U, 0x3a9071703b388970U, 0x3c0ae5c83b0a14c8U,
  0x3ca7e62e3ca681ecU, 0x3ccbd470bcc04aaaU, 0x3c9d17ac3d8c5bbfU, 0xbe063d5cbd8ac870U,
  0x3e16b2803d54a3b2U, 0x3d8a2944bd286119U, 0xbcacbbbdbd8dc490U, 0xbd099b50be157094U,
  0xbdd990183d50efd6U, 0xbd83e5fc3d931560U, 0xbdc56857bdb918f3U, 0x3d05e225bd3d70e1U,
  0x3d8ad610bd70a0a2U, 0xbe92f7a2be2b9711U, 0xbc5fe1c33c188752U, 0xbb2d39b0bd3c6632U,
  0x3d42e3803d9e6883U, 0x3d08ebf83e1d8586U, 0x3cd58174bd3ea1d8U, 0x3dae01793c11cb58U,
  0xbdb4c9793df441dbU, 0x3d94604fbd3b206dU, 0x3d1c7a263d7d98e9U, 0xbe0b27493de27916U,
  0xbdb56443be7d1b09U, 0x3ccf1855bd6fd1c8U, 0x3cb0c278bdbcb102U, 0x3d81717abc496be5U,
  0x3e230d2ebd9cc5f5U, 0xbcfa22613b25a380U, 0xbd3b4cc03c6176e2U, 0xbdfca6cfbd3fccccU,
  0xbde05c17bb524949U, 0xbab4e01c3d9e4753U, 0xbd9487babdc684e7U, 0x3d32c20cbc763e06U,
  0x3d40feedbd904f8cU, 0xbd9e351dbcbdbff1U, 0x3c7fd624be0756d0U, 0xbdcae56bbddd6558U,
  0x3d1c16d83e003ac8U, 0x3c5510ab3da7e178U, 0xbe3e76773aa32f47U, 0x3e0028fdbdcc6413U,
  0x3d819c973b8270b5U, 0xbdc5726b3ca4e810U, 0xbd80d75fbdbf5372U, 0x3d5f4ce73d170904U,
  0xbe187366be570f8aU, 0xbd3116dcbe4cdc2aU, 0x3cb7ec17be0cfea6U, 0xbc858e93bd8a01aeU,
  0x3d3ec0ad3ccfa951U, 0xbc819b173cf209f2U, 0xbd952a54bd8669feU, 0x3d3e1927bbfc2bb9U,
  0xbca4b6f43d156241U, 0xbd9d43e5bd81e453U, 0x3bdc057fbddc74eeU, 0x3dc69b643ccaa6a1U,
  0x3d194f153d2e2c48U, 0x3c01f5693d3f5b4aU, 0x3e73c2113e4a26a7U, 0x3d713e4b3e1b60e0U,
  0x3dd182a33da730d1U, 0xbd41681abd987435U, 0xbd2773e4bd6a84d7U, 0x3cabc8463d10c877U,
  0xbe1ceeccbadc40eaU, 0xbe2ac240be86d480U, 0x3d806c2cbd25ce51U, 0xbd671bfd3d4a2ba7U,
  0xbd7973cfbe1a0b6aU, 0xbd1d5f56bd81da0dU, 0x3cf1ec513d23f665U, 0xbcee6921bbb64c86U,
  0x3d7431c03d1c4bc7U, 0x3d1e19143d5d012bU, 0x3c205959bde73acdU, 0xbda71523bbd4d733U,
  0xbbb238f2bbd0ded9U, 0xbcc752fe3d1760c5U, 0xbd7225343c0045c4U, 0xbc2894a4bd9babcbU,
  0xbd7625223da768dfU, 0xbc223c27bdae90cfU, 0xbdc1d83bbca9a4edU, 0x3d572c42bd6e88f3U,
  0xbd353548bd7c23d4U, 0x3db286953d96edb1U, 0x3d5d8b503d07f73aU, 0xbc9986c73b4b764aU,
  0x3d2f9b543d53c1d3U, 0x3db82b5fbce8c45cU, 0xbd5507393d502a8dU, 0xbc53ab1d3cc730d0U,
  0xbb4b7e443d9cf5b8U, 0xbd6ddd94bcecca6dU, 0xbceb3ac33855aa09U, 0xba582a25bd9a2d58U,
  0x3d3511c2bd9e76a0U, 0x3d8e09543da35897U, 0x3cd553bb3d1c945aU, 0xbdc7bc3bbcc3eeffU,
  0x3c306a36bd9a04abU, 0x3d0fc2793cc044fdU, 0xbd55b8dcbd841ab2U, 0xbca3bc06bda58168U,
  0x3d74adb43ce1e371U, 0x3daaa3a53df6a7f4U, 0xbb6a56143c748947U, 0x3e5832833e2db5ccU,
  0x3dd8fae53d4e8736U, 0x3dc276343dd3c2fbU, 0xbdbeeb24bd3dca16U, 0x3c978ffabd3c55cbU,
  0xbccb4a763c86a93aU, 0xbe3ea2babb940ef9U, 0x3da8200abe179000U, 0x3c2d3d4f3e0d912fU,
  0xbd9e24bdbcfc5a7eU, 0xbd8f9be6bd87345cU, 0x3ca64b26bcac7f3aU, 0xbd83f7febd76b178U,
  0xbc4c136fbd1b6e41U, 0x3db8da873d37dcb5U, 0x3c4386cb3c6c961fU, 0x3ae11c81bdc10ed9U,
  0xbd4652883d2f6d6dU, 0xbd274ccbbd665cb3U, 0xbda219e7bca0829eU, 0x3ce2e5923c1ae770U,
  0xbd5591f73c0c44b6U, 0x3cbebda93d836f58U, 0x39b271bfbb007e2fU, 0xbd11c15ebcd16792U,
  0x3d7ee328bd75f6a4U, 0xbe03908cbe56655aU, 0x3d41675f3c96260eU, 0x3dd448043cbac59bU,
  0xbdcd182dbbf3fac2U, 0xbcee4f913c071fb2U, 0x3da42dc73d301101U, 0xbd2fb9a93dbddc13U,
  0x3d3ce13bbceb7218U, 0xbc4aa2653dabaf33U, 0x3c89ad023a0bdbd1U, 0xbba94135bda4da7eU,
  0x3cc59708bdfd674eU, 0xbccd1877bcc0588cU, 0x3dbad74e3c44c011U, 0x3c27f33d3d3199a1U,
  0x3ad7f5e6bc94089fU, 0x3d44948bbbea1248U, 0xbd246170bbe68c00U, 0x3c1c2214bd1016a2U,
  0xbd2e2025bb6b2ad3U, 0xbe08d9cc3d5d916eU, 0xbdb45478be0403f4U, 0xbe035e173d1f270dU,
  0xbde7eafdbdef0a99U, 0x3c940fb53d213604U, 0x3b52ccd9bd130b17U, 0x3d4f65d13d972c03U,
  0x3d5d7a1e3d6f7a1bU, 0xbd83594cbd5d97deU, 0x3b7c2c0bbc92d7f1U, 0x3ca227963d3de4e0U,
  0xbc95ed7bbcb2b003U, 0xba974fffbc5fa802U, 0xbd9bf567bcfd4664U, 0xbd3f4b20bdc86f90U,
  0xbc9707d73c0027c6U, 0x3d35b1fbbcefac8cU, 0xbd1c6d153d3d9827U, 0xbd293eb03e27b16dU,
  0xbc66235d3e30cdeeU, 0x3d6c5199bd2e5a29U, 0xbce2b080bd1fcfc9U, 0x3da7014fbd8820f0U,
  0x3bc0b816bda99e39U, 0x3d7a46233d5d604cU, 0xbd9c0d60bdc41966U, 0xbcb937c5bcbdb9fcU,
  0x3d25ce9e3da30970U, 0xbbd600b0be456e31U, 0xbca8527fbb7b03b0U, 0x3d8f1d5a3cd0e521U,
  0x3cfa2bf03e15284aU, 0x3d990058be1d60a2U, 0x3d3b3e1b3e097ac0U, 0xbe136545be178ed0U,
  0xbe2a7b7ebd7bcb80U, 0x3e390bbebcc3419cU, 0xbd8ef5563d4f3bb5U, 0xbe2ee611bdf2fe60U,
  0xbd9665fdbe29d2d4U, 0xbc8d5ef03caa543eU, 0xbc78d0d43c260b49U, 0x3d257ebb3d31cb45U,
  0xbb40009e3e16083cU, 0xbc0fe9ebbb1a789cU, 0x3c3f2829bde33787U, 0x3db81a2fbcdae0d5U,
  0xbba93faebd0dfda0U, 0xbde35aa3bda61a76U, 0x3dad69ab3c5c47c9U, 0xbd6fc5243da7dd11U,
  0x3d628f163d5516e0U, 0x3c992802bddce00aU, 0xbcd6c8d83e00371dU, 0x3d47f1a63d695f05U,
  0x3d8006babc041e69U, 0x3d0dba263d474581U, 0x3a148db73d20399fU, 0xbd200d1c3cc84729U,
  0x3dd6e6dc3dc107f8U, 0x3b54cb2c3dc55261U, 0x3d9d19debd10a095U, 0x3bf1f5e1bcdcf53dU,
  0xbe2ee3c8bda6a0ebU, 0xbcd64b66bdfe8760U, 0xbd87c33ebd541dafU, 0x3d4770763e281a73U,
  0xbb90fc5d3e1e42d8U, 0xbb4c1700ba52c434U, 0xbcfad45cbde090cfU, 0x3e446e3c3d33a2e6U,
  0xbcae9755bba70fc5U, 0xbd56c414bc52e1d1U, 0x3e12df5e3dc49e9bU, 0xbdb3b194bc2924d7U,
  0xbd0d3a03bd9aa9b5U, 0xbca9188abe2eb67dU, 0xbd8306e0bdd5e060U, 0x3c0d56983c2482e7U,
  0x3da3979d3cc65971U, 0xbd779aafbd02a877U, 0x3de179d33ddc4577U, 0x3d02fafe3d4ac819U,
  0x3d382a13bda2b98fU, 0xbcad99ef3db5925aU, 0xbc72ca6e3be7a90eU, 0xbdad013fbc2a9f99U,
  0xbc1a2402bd27d56bU, 0x3d20507b3ce37e38U, 0x3c4d9d90bd75d262U, 0xba26858c3b8989cfU,
  0x3d1db5b8bbf1e540U, 0xbd3071a5bd88dcd4U, 0x3c082ad8bd882498U, 0x3deb62233d856cd5U,
  0x3cb840da3d1ccd74U, 0x3b4ca8b23caf1ba9U, 0x3ccbf04f3c9b2446U, 0x3dc29726bc293591U,
  0xbd622fc63da71f0aU, 0x3e02a5d2bdb2b448U, 0xbe482ca63e194f09U, 0x3d8f728dbd620513U,
  0xbbde38503c01fb38U, 0x3d168c443c2051dcU, 0x3d999df43e0b717cU, 0xbd40cd59bdff3d51U,
  0x3defe64abc1d2ee0U, 0xbb97f32c3d0a20f3U, 0x3d2370153cc5a8e5U, 0x3be5e19fbc00f4e8U,
  0xbe07fc93bd0d55d6U, 0x3cd4385abd9df7dbU, 0x3a9ab2a2bcc00ef3U, 0xbd6719dfbc93ee4fU,
  0xbc6f518f3d1abee6U, 0xbcf76e283a24ff15U, 0xbd3452a3bda77c33U, 0x3d3fbf9cbe08a38dU,
  0x3e2777523dc1b979U, 0x3dc02dea3de81ca9U, 0xb9ec612a3ca82340U, 0x3c836d073b3b7db9U,
  0x3c8d4beb3d5969feU, 0xbe0c230bbd9fb61dU, 0x3d7271a3bc1075d0U, 0x3c09e4d73d685c4cU,
  0x3d79ffd63d2c8e0cU, 0xba6590fd3d100d28U, 0x3dce34723b5945c5U, 0x3d0d12e23ccb89bcU,
  0xbc9104553c37821aU, 0xbdf22450bd690991U, 0x3c3a433ebd21731eU, 0x3b77e8febc9dcb23U,
  0xbe23fd133d157570U, 0x3b7e6e94be5b9233U, 0xbd215ee23b13c7caU, 0xbe0aa641bcd85612U,
  0x3d11b22cbc60c116U, 0x3d67351a3d146030U, 0xbd9c2866bbdf2cf4U, 0xbced91ecbba31063U,
  0x3cce6615bcdf493cU, 0x3d8f57ac3dc1b6c0U, 0x3cb497b03c1c84b2U, 0x3cb95603bd4ef02aU,
  0x3ccaaac83d1630c1U, 0xbcb07796bd1c1ce6U, 0xbc5b0ddb3b8a3718U, 0xbd9a1f97bd266c65U,
  0x3c96495dbd332b46U, 0x3d472ed2bd1f3c33U, 0x3be6e20f3dd22034U, 0x3d5187333d510f31U,
  0x3d0168eb3d1a000dU, 0x3c33f0c63d5759efU, 0x3d28ea99bbc0d707U, 0x3d0bcb26bd3a5fd2U,
  0x3c99a9ae3b05fbceU, 0xbd38b13cbd554f6bU, 0x3cacb421bd5d72f9U, 0xbc43b3eb3d393de1U,
  0x3aa6360cbca29934U, 0x3d922b673be6168dU, 0x3bbcfb59bdb74d1fU, 0xbd2d98113cc32c22U,
  0xbcd6cebcbd2de622U, 0x3daa1d103d832d13U, 0xbc9885a4bce16a4fU, 0xbc134bb5be150227U,
  0xbd9ec1a1bd33269dU, 0x3d8770c0be586c77U, 0x3dccfe6d3d39364cU, 0xbd38b93d3dbf48b6U,
  0x3c8ac552bd11d0a6U, 0x3c498c79bbef7a47U, 0x3d3b83053e298014U, 0x3e0407e53d1b11c5U,
  0xbd80a3303b84c5b3U, 0x3c8b8849bd38ae91U, 0xbd44a7d13df952cdU, 0xbd4f89c3bd4670cbU,
  0x3d4a5ab93d94559cU, 0xbd1a973d3d9877b7U, 0xbdf5329bbe3c1ccdU, 0x3d14fe9bbd35ec19U,
  0x3c9dba44bd4f7a94U, 0xbc9f4e02bcd1efbfU, 0x3d65e64e3db225efU, 0xbcab6f5d3d704750U,
  0xbccfa80b3bcc3ec7U, 0x3ceb4f90bd1f3715U, 0x3d898fe03d37b87dU, 0x3aee0c8fbd3e204eU,
  0xbd8a1f04baa26471U, 0x3dc9b5803daaeeb2U, 0xbd703dacbd42ad1aU, 0x3d6fa032bbf77aeeU,
  0xbb08c115bd8d4a99U, 0x3d9d11413da80040U, 0x3c0eae113d73c36fU, 0x3cf52f3c3da516b8U,
  0x3d31136cbce813b1U, 0x3d0ead7c3d346f0bU, 0xbd3855403c7a209fU, 0x3dbd9ee83cd1a5d3U,
  0xbcef6e7e3d01a182U, 0x3d5968d33c23d25cU, 0xbd2dea963c2a029fU, 0xbdf3f249bbe515b7U,
  0xbd482785bdd95614U, 0xbca2f441bd343242U, 0x3b98acc7bbbaccaeU, 0x3d6dbfb63bad5348U,
  0xbc4763df3a4d2333U, 0xbd0b434ebc7372afU, 0xbd0482e13cde9904U, 0x3c9cf1fa3d2a5a3aU,
  0xbc2982903c916e63U, 0xbc89e35dbd9170c4U, 0x3c17a79a3dd6fc61U, 0x3d6171723c048d06U,
  0xbd89ac34b89c5df8U, 0x3d95f3463d73456eU, 0xbd99470abd48fdfcU, 0x3d3a13a53da30966U,
  0x3c9a3eec3c34f15fU, 0xbd39a6733d12e099U, 0x3d3e76313d3a5a15U, 0x3ce224153969157aU,
  0xbcd7c3173d9ba096U, 0xbc24df623d29cb56U, 0xbc1d7dc53d38282bU, 0xbc49eadcbc84e59dU,
  0xbc14f3c83c5307ebU, 0x3ce4aeeabd64861cU, 0xbb6bc4d83db3b81dU, 0xbe239ebcbd81fa1bU,
  0x3c307a0f3d5102b7U, 0x3dc50310bb7c02c3U, 0xbcbc8d57bd2e2a2eU, 0x3c988b7abe4661e9U,
  0xbe12cbdfbc9a8e44U, 0xbdb621623d941b7aU, 0xbd870724bd47808fU, 0x3ccec2833d7debd1U,
  0x3ded98c23cfe4880U, 0xbe268674be3962e4U, 0xbccdc1adbc903939U, 0x3d244c86bd07cb5eU,
  0x3e03cd913db09fe2U, 0x3ba69a193e0e3f67U, 0xbc105097bde9abe6U, 0x3d8f27e53beac1c6U,
  0xbddc58273c8e6a87U, 0x3cb5513abda5d924U, 0x3c960f0d3cb0a2bdU, 0xbe3a4a0a3db384c5U,
  0xbda8f988be3b27d3U, 0xbcee5ee9bc81ab4eU, 0xbd9431ed3c87c486U, 0x3dc9c5e0bc3f1cfcU,
  0xbdab419b3dd6c945U, 0xbdd11968bdb68f9bU, 0x3d744ebebe07236bU, 0x3e2f64223db33fdbU,
  0x3be101af3df8548dU, 0xbd3f4000bd8a9bbdU, 0x3be12a813ce9a8e3U, 0x3d76cecfbc9c6f73U,
  0xbd9750023c6b5f53U, 0x3d40e30f3cbc2417U, 0xbe171287b8ed7b09U, 0x3da630963d6f083cU,
  0xbbd9a8523decd0caU, 0x3c347bfdbd9443c2U, 0x3bf3b11e3cece83aU, 0x3da20248b87ba898U,
  0xbd54f3e5bc2c9353U, 0x3d91122c3d253909U, 0x3cd06d9b3d8fa304U, 0xbe250fca3d682b7fU,
  0x3b551b8dbe14a468U, 0xbcd02b3cbb42ac5aU, 0xbcde6f643d3c34f7U, 0xbcc089343c873ca4U,
  0x3ba194bb3de69b39U, 0x3c7a5bd83ca276b1U, 0xbd205f763a6a3982U, 0x3dbcc8f23ce4bcc2U,
  0x3cfd77163de8b03cU, 0xbde4536bbd88bc51U, 0xbcd29fbf3d68e131U, 0xbe067a92bda2c6d8U,
  0xbc9a8e8fbdceec8eU, 0xbcaf72f43cc61938U, 0x3db42216bc114633U, 0x3caa5a1f3de3fa83U,
  0x3db1896b3ca883e2U, 0x3e58f2a33d8c8e97U, 0x3db7371c3e42d6d6U, 0xbd1ebc99bd148242U,
  0x3c0e64a6bbc56c5dU, 0xbe091addbdce300aU, 0x3cb9d1e7bb6356ddU, 0xbd1b0c923cb6288cU,
  0xbe8504e5be367e59U, 0xbc935427bdff1742U, 0x3cc423de3d960f65U, 0xbdeab6b3bcffb3f5U,
  0x3c6c2dc13c747781U, 0x3d9fcaf93dcfe70dU, 0xbdc622dd3d22a782U, 0xbd5dbb33bd982c56U,
  0x3c8c70623ba86686U, 0xbc2af431bc8d0133U, 0xbc9ab81cbdf5e063U, 0x3e61ff683dc3aa6bU,
  0x3d98554a3e891559U, 0x3c66cce23d9da730U, 0x3eb3b8793da94ee4U, 0x3e5f341d3ea56732U,
  0x3d8424b83e036019U, 0xbe3519e83d64a96aU, 0xbe3e1898be2d335cU, 0x3d314a12be2f47dcU,
  0x3c713a623d489c8eU, 0xbe771f14bd990f82U, 0xbdc5a094be172d91U, 0x3d22a5d3bdc246f8U,
  0xbd6925cdbd931b10U, 0x3e02edc63acb6f69U, 0x3d07987abdaead32U, 0xbd0788ebbd34a28fU,
  0x3caf5827bca8a08fU, 0x3d408af23d660b35U, 0x3d94bba93c4acf02U, 0xbd457d553d5cf696U,
  0x3d10e8df3d17466bU, 0x3db1d48e3cd3cdb9U, 0xbce7e63ebd1701c6U, 0x3d4e8f74bc7884ffU,
  0x3aa1148e3c03fc75U, 0x3ccf7a913d036fb7U, 0xbd8b0e8c3cfaa1a0U, 0x3e06c03bbd556d52U,
  0xbd349b9d3dd4bbf6U, 0x3d8ef90b3cd72ce2U, 0x3be12a7d3a50638bU, 0xbd11ace3bd7903e3U,
  0xbd9b05ebbddf0ba4U, 0xbd6f3b893d80cac9U, 0x3d75828f3c35d030U, 0xbdddf3e13bb3c538U,
  0x3ca11f493c922233U, 0xbdc2537abcd3005cU, 0xbdd7427ebd695c24U, 0xbd6cc0893c46431aU,
  0xbc882b343b187107U, 0xbcb610a73d78bc55U, 0x3d2d3ee13d0b6061U, 0xbd7abea53d011100U,
  0xbd273b1ebd4a4a9eU, 0x3d391a713bf12367U, 0xbc0ae94d3e02ee4bU, 0xbdbf4268bc7e44cfU,
  0x3dd2c453bd4f0ec5U, 0xbcfe86fa3d38eab1U, 0xbda4daa3bcd8a8bbU, 0x3d3402943cb012e5U,
  0x3e1c9c963dbc39afU, 0x3ca846013df65746U, 0x3db82b053de74f53U, 0xbd6f7800bc9d59adU,
  0x3e188be73d3b1bcaU, 0x3d43ebf83d868bd7U, 0xbd9072dfbdf98d70U, 0xbbe28cfe3b52ca27U,
  0xbbad68c8bcbb5fc6U, 0xbe14f2bf3d78ff49U, 0xbdc86bc0bdb4d88cU, 0xbd6a67203d1c3dfcU,
  0xbdba00aebbc121c9U, 0xbc8a68f93b821eb2U, 0xb99240783ce282cdU, 0xba302b703c41b176U,
  0xbc4340a6bcf2c32eU, 0x3ccca8e53abba86dU, 0x3c3d1ff13d7de5d0U, 0xbc530bf3bd1a9587U,
  0x3c9a56d93c75d4ceU, 0xbd4f936fbd1e07f9U, 0xbc39ff353a9bcc37U, 0xbc4e4e53bd8029b2U,
  0xbd6e2580bce0fc91U, 0x3d071decbc6a923eU, 0x3d8d770abd1f17b9U, 0xbceb97bfbc04e14eU,
  0x3d967b173d11bde7U, 0xbd0a9684bd93f0a2U, 0x3c94e9babd000498U, 0xbd3e4f503c16d8f5U,
  0x3c4b7451bc737fb1U, 0xbc897745bbaad9ebU, 0xbd94e961bc56adf0U, 0x3c2d3b39bd820d3aU,
  0x3cdf35a43d455028U, 0xbd3a9684bc889dbcU, 0x3d8799853d321662U, 0x3d540cb63d899384U,
  0x3d0d3ed5bd7da15bU, 0xbd8c7592bda6a5dcU, 0xbc52fc063d9547d7U, 0xbd3d9b17bcea2815U,
  0xbe08a5d6be169ec4U, 0x3c8dd133bc318266U, 0xbd3e44913d6e7863U, 0xbd3a88b43d20d12fU,
  0x3e394e2f3d8443f8U, 0x3e477c3e3e3f9027U, 0x3ced272e3dcdc063U, 0xbcdd0079bb8bc0c9U,
  0xbdc6aeebbd993386U, 0x3e2db2cebb2a5d71U, 0xbb788f253dba26bfU, 0xbe39f453be3907c3U,
  0x3cd3913fbc4ec9e7U, 0x3cd97d053c8c5798U, 0xbdd78bcbbc0e989aU, 0x3d433ea7bdd99fb0U,
  0xbe4077c6be0190e1U, 0xbe183e24bdbedba5U, 0x3c303a62bca447e9U, 0x3ccf525a3c2b826fU,
  0xbd00d31f3e063c89U, 0xbd8894eb3ba31ac4U, 0xbc587902bdbe26d6U, 0x3cd537e8bd103301U,
  0xbd6e3e18bc2fe762U, 0xbd3490e3bcf19d69U, 0x3d31e18f3d95b583U, 0x3c994a51bd5d79a6U,
  0x3c0af510bbfde3f4U, 0xbe0c6191be342baeU, 0xbc87f2033db2d5a0U, 0xbce494823c8bb498U,
  0xbce44df1bc899712U, 0x3d8298ab3c99eeeaU, 0xbc46dc763d00bc8fU, 0x3a2a2eac3c175640U,
  0x3d8970d43dcb8eadU, 0xbdc4e3743d40a2f5U, 0x3d604d7ebc42c9ffU, 0xbbafd6093c22938eU,
  0xbe21adb4be00a373U, 0xbd5632e9bda031c0U, 0x3c049beb3b3d664fU, 0x3d3b01cb3b412612U,
  0x3d40dcf2bcc60397U, 0xbd26fc2a3b28142dU, 0xbbc831febd38fe63U, 0xbb32cb663d84eb73U,
  0xbdd3ee33bd9dc608U, 0xbd66c297bd31e06bU, 0xbdafef71bc388a74U, 0xbb1fb9bdbe123323U,
  0x3d5e57c03d2c7e8aU, 0x3e1255433ca60ab1U, 0x3dd69c973e39b0b4U, 0x3dfe27563dfc5d3aU,
  0x3d3f7934bb7387b5U, 0x3e0de3ee3dc0fda7U, 0x3e0ca235bc73458bU, 0xbc2366c8bb279727U,
  0xbe0d6d84bda6c661U, 0xbe06d2adbe1a336cU, 0x3dd218ee3c29f90dU, 0xbdfeb679bb8cc488U,
  0xbe3ec16abe101d80U, 0xbd8eca30be52e5ecU, 0xbc8da4f63c649668U, 0x3cc3a8943a870777U,
  0xb83cbb173d8a5e45U, 0x3d0e790bbada5bcdU, 0xbd9321bb3d9f0b84U, 0x3d2cc98fbbcd24d6U,
  0x3cde1d6d3cd94437U, 0xbdf566b0bcd06dedU, 0x3d139923bd52d6f3U, 0x3cdf47a33d69fcd3U,
  0x3d22081e3d042a1bU, 0xbceb07e4bcaee4f6U, 0x3e04595d3c7eac29U, 0x3d06a3303d06c424U,
  0x3daec0fa3d9bdfdaU, 0xbbbaa40a3cb20f56U, 0x3d1ebc823c8d3054U, 0xbd0972ab3c13dc83U,
  0xbd7ec9ed3a215328U, 0xbc27ac95bdc554d8U, 0xbc7c05fcbd5a84f3U, 0xbd68073dbcc29d0eU,
  0xbd1f670bbd5927b9U, 0x3d1bb5e1bbb0226fU, 0x3d4fa6b13d312a65U, 0x3c8ad8fabd252cc1U,
  0x3bfee7093ba66186U, 0x3d1297b6bbcfb0cdU, 0xbc7e6e553c10b150U, 0xbd43c67cbc93f8d9U,
  0xbdf53672bb8dc58bU, 0xbd39e2693d077cd3U, 0xbc013f293b6bc908U, 0xbd7fa828bd2c959eU,
  0xbda0e278bd6ec301U, 0x3c0e4ecfbe05f61eU, 0xbe46e632bd35d6c0U, 0xbcc706b1bdffdf10U,
  0xbdaa2b27bd7ef746U, 0x3cbdb763bb95a6c6U, 0x3d913b6e3da1e7cdU, 0xbd799f0b3da21968U,
  0xbc76c732bd632dc7U, 0x3db6accabc3bf990U, 0x3c61ed5fbc0ae9edU, 0x3c8eafbbbd7e3b6bU,
  0xba001c2a3d6fda93U, 0xbd88f890bd885362U, 0xbd1d3457bd4a1a17U, 0xbc193f16bc23dfacU,
  0x3c080e5b3ca69c65U, 0xbc3022913c61955dU, 0x3b95e9c3bd19e8e9U, 0x3c43388a3cbf4e30U,
  0xbc46f7993c9caf49U, 0xbcdfd3e93c421ab1U, 0xbb16740239ed2cf9U, 0x3b7c45a83c903e1aU,
  0xba902fd2bc689f42U, 0xbc71e24ebc27d275U, 0x3c852c43ba8564f0U, 0xbcb0df873c2dd167U,
  0xbc03fe63bc960298U, 0x3a3693bebce1495dU, 0xbca36f473d0c7c76U, 0x3c4a409fbbde90c1U,
  0xbc9d23b5bc341f06U, 0x3c873e97bcb6ea88U, 0xbc909944bc9d2f1eU, 0x3c6a258dbc87c812U,
  0x3b9153c73b9ccb65U, 0x3c1ab1913cb47d74U, 0xbc9f3fb9bc9eee93U, 0xbc99695f3c574d34U,
  0xbc1b14323c1b3116U, 0xbcd815bcbb847e93U, 0xbbd2261b3c413d07U, 0xbc72c45c3bf21bd0U,
  0xbc548ded3c5b9d87U, 0xbc18b377bbaa4d86U, 0xbb8adbfabd0fda83U, 0x3bdb9a4cbc7938faU,
  0xbb4a73343c9141d6U, 0x3c8e0e08b8f23655U, 0xbb1ae8b0394cc7e6U, 0xbc9b0feabc0d758fU,
  0x3bf3183ebca1c462U, 0xbcd40ffbbb5c3d1cU, 0x3b7fdd153c8e5c50U, 0xbcc6d97f3c147aa9U,
  0xbbb2b305bcb0ae2cU, 0xbd02b8d9bcdebd53U, 0xbc111d173c406833U, 0xbd012011bc3b0f8fU,
  0x3c255339bcac5d66U, 0xbce937cf3a3bce2aU, 0xbb36d5f7bc657bffU, 0xbc174db8bb9ba0f2U,
  0x3c521e21bc942306U, 0xbc0a43f2bc0ae93dU, 0x3c6e215f3c8b8bd4U, 0xbca65f843c2ec895U,
  0x3cec67dcbcc08731U, 0xbb911f62badfb4cdU, 0x3c0cc2b5bc0ffbfdU, 0x3d0cd5c939f68706U,
  0xbcbe10a93c4486dcU, 0xbcdc16bcbc847e0cU, 0xbc41ca903c3c86f2U, 0x3bfd8844b94fe900U,
  0xbcba8eeebcdab1adU, 0xbcc3df7b3c2f8d8bU, 0xbaae5ca0bc90a0d1U, 0x3c74cd04ba24ab27U,
  0x3bea70d13c7c4a72U, 0xbc89f6abbccde80cU, 0x3d0a79413cc614daU, 0xbc6d81343c811dadU,
  0xbcc14f02bc09b3b4U, 0x3cc0a0243c908816U, 0x3bf94a223c972666U, 0xbc95a0d1bd00f05cU,
  0xbb580559bba93980U, 0x3bcf7918bca1b212U, 0x3c7edd153c941d4aU, 0xbcc4f1d0bc8582c8U,
  0x3c77ae303ca55308U, 0x3c4dfb603cc0fc8cU, 0x3c65afbcbbaa84b4U, 0xbbeb46603c188610U,
  0x3cb159863cc2eb6aU, 0xbbcd6f183c8d554cU, 0x3ca7fc463c2060b8U, 0xbcb82888bbdbe574U,
  0xbcc72cae3c72f290U, 0xbc8f18663c1e03acU, 0xbcbc2994bc45733aU, 0x3b5f52803c5fc104U,
  0x3c1415e83cbb6afaU, 0xbc85b3a0ba4c97c0U, 0x3c77af20bc87a5b8U, 0xbc8baa3cbb8a76c4U,
  0xbb16be78bc51de26U, 0xbc765d643cc702eaU, 0x3c86607ebc56ca64U, 0xbc8be6dcbcabe8d8U,
  0x3cb69cc2bc19f82eU, 0x3cc45bb43c1c48dcU, 0xba9d11db3c960718U, 0xbd02e703bcda5cceU,
  0xbcf1679b3b17ba79U, 0xbcf6fb49bc34033fU, 0xbbd15471bc308677U, 0xbc422e06bcf1702aU,
  0x3b8a1bc2bc1ffc24U, 0xbc95ec173c4f82f8U, 0xbd000fac3b34a555U, 0x3bcea869bc60ee17U,
  0x3b90fcca3cc30b56U, 0xbc3c5dbabc310e95U, 0x3c8850c7bc2e1296U, 0xbbb2e6bc3c79c384U,
  0xbc5e84aabc88525aU, 0xbc785fa4bc326a39U, 0xbcac0889bb937fcbU, 0xbc114880bcd77d7dU,
  0xbc9d5f12bc37d48cU, 0x3c8bc9e3bbccea89U, 0xbc9b85f6bcac8b85U, 0x3c8fe64cbc5c0f7cU,
  0xbb5c216b3c644a3fU, 0x3b7d6fb23cb9ad4dU, 0x3b4eb09bbc63d48fU, 0x3c87f31a3c86b78cU,
  0x3b042e8a3c9c1a44U, 0x3bad2181bbf47728U, 0xbac66ebe3c5356e3U, 0x3c3ff5213c370201U,
  0x3c0cdc2f3bbd63cbU, 0xbc42ad823c6e4c34U, 0xbc44092cbbdd2f04U, 0xbcc39ad0bcd536d6U,
  0xbc88e445bcccd379U, 0xbbe58cc5bbfcfd21U, 0x3bbf118dbd0dd492U, 0xbcc6c94f3c8970b1U,
  0xbc0ec0ee3b111155U, 0xbd03fe82bc4abebbU, 0x3b9f24e1bb81869fU, 0xbc8c7066bc923d21U,
  0xbb6d5512bc840244U, 0xbc25c6a13c7c1553U, 0x39df6bdd3c710368U, 0xbcffa8dfbbf9dfa1U,
  0xbc6dfc1bbc666b51U, 0xbbf011f73c59a6c1U, 0xbc8751adbc329d6aU, 0xbc0857c2bc903644U,
  0x3c527c013b92d1f2U, 0x3c157abdbcf9268aU, 0xbcd3a067395f0f07U, 0xbcb80cc6bc972749U,
  0xbc6c6d54bc3ac40fU, 0x3ce339dd3be978b5U, 0xbca26dc1bca89b24U, 0xbc6d7678bcb59812U,
  0xbc95054fbc63c5baU, 0x3c4ddd4bbcd960d2U, 0xbc839794bb92731eU, 0xbcf799853c3b2e01U,
  0x3c2059013bfc1befU, 0xbca2edf8bb8d4b3aU, 0x3c699cac3bb8e00eU, 0x3c50162cbcea406eU,
  0xbc64fb77bcecfc72U, 0x3b17f00dbca6c315U, 0x3c00cf3bbcc95b13U, 0x3c614f693b7c0b39U,
  0x3bf1c771b96239c4U, 0x3c399f0cbc2773a7U, 0xbbeb3188bc5a662dU, 0xbcf43805bca96ebeU,
  0x3c9f3dc13c92409eU, 0x3bbcce84bce0c1d4U, 0xbba4173abc8ef394U, 0xbc39e681bc638086U,
  0xbb440f78ba2293fcU, 0xbbec921bbcf807e8U, 0xbc82d8283bf56e48U, 0xbca48b22bcd9a602U,
  0xbb9e74eebcdad759U, 0x3d00f7e43c894e8aU, 0xbcea7c93bcc37212U, 0xbce003813c56d69cU,
  0xbcf833193c0cd565U, 0x3b9427573c86a21aU, 0xbcc483ac3b8d74f2U, 0x3a65f061bbf225c8U,
  0xbbf8067bbceb688aU, 0x3c094188bbfdc4feU, 0x3c435af1bb9bde71U, 0xbb8acce9bce809a1U,
  0xbc9678f8bcfad766U, 0xbc3f85943b4cb64dU, 0x3be5610ebcbe5b02U, 0xbc90b7093ba0e1c6U,
  0xbccadaaebcad6869U, 0x3c70f297bc3bd7e1U, 0xbcfb5d8cbcf6f029U, 0x398704f03cb03224U,
  0xbac75f11b9bd72a1U, 0xbcd75d133c684236U, 0x3cf56d8bbc868d36U, 0xbc9bcecfbc371879U,
  0xbb976eeabca3a650U, 0x3aaa80803b3a8b4aU, 0xbcb385b13961b1d8U, 0xbb8cc9e03ca1bd3dU,
  0x3b92f2c93c001626U, 0x3c8deaa1bcc1c319U, 0x3bde45503cdba67aU, 0xbc5e4277bcea2211U,
  0x3c8001423c157a48U, 0x3bd1f71abcc96fb5U, 0xbc0fce17bc97ba3cU, 0xbc1da239bb7f957aU,
  0x3ca161263c8b8c2bU, 0xbcabb852bbb5f63bU, 0x3cc622e1bc8c8cdeU, 0xbb9ded703cbe7d05U,
  0xbc4f978abc059ee9U, 0xbcf675ccbbeaa80eU, 0x3b065084bd1fa9b5U, 0xbc58e8bebc2feac3U,
  0x3c9fe00abb9c5c74U, 0xba1733053c929593U, 0x3b13f688bcd91728U, 0xbc9b4b75bbcf7e0dU,
  0xbbe1a5c73bda11f2U, 0x3a55e6c23b91ad37U, 0xbb370dc63c91aba3U, 0xbcafc6cc3bb43b1eU,
  0xbaccef38bc29d458U, 0xbcbed681bc3c06f2U, 0x3c96fc7fbb19ea4dU, 0xbd0fed3cbcb1b76fU,
  0xba1511963c024cd5U, 0xbbe7635dbd0387e7U, 0xbc9ade77bc0fdf65U, 0x3be7d4b6bcb6bb0eU,
  0x3c58d770bcab3b86U, 0x3b1191723c261e4fU, 0xbc027c67bbf11008U, 0xbcb4574fbca71716U,
  0x3bc9c2123c139d19U, 0xbcb95b26bce00498U, 0x3b8664713c0db05dU, 0xbbcd86ea3a9e318bU,
  0x3c9f4c54bc8ae064U, 0x3c922bcdbca17ed1U, 0x3ab7e25ebaf91b9fU, 0x3cf0e3f33be33483U,
  0xbc9e71733cec4c5cU, 0xbcbfc65b3c690306U, 0x3c957f3f3c871282U, 0x3bb7e930bc71c54aU,
  0x3b9f953f3c4a8c11U, 0xbc96b015bcfb05e7U, 0xbce148a93bdd3a8eU, 0x3cc457cf3c8c4078U,
  0x3c6537de3bb3e927U, 0xbbcd656bbb85b73dU, 0x3d08e673bccf7e81U, 0xbc8e65da3c67e217U,
  0x3c8e993c3b2cf068U, 0xbac922ba3c9de607U, 0x3ba993b43c09e8e3U, 0xbb2b690bbc8c804fU,
  0xbbba307a3c55a927U, 0x3c6c9a36bcb91340U, 0x3bfe6cc33c133783U, 0xbb846996bc1b1282U,
  0xbc8d47e0bc6c8e3dU, 0xbcdf1deebcfd052dU, 0xbd0999b5bcc3dfa9U, 0x3c2b483dbc4a4de5U,
  0x3c76e199bc8fbbfbU, 0x3c9163ffbbf52524U, 0x3c8f6223bc2eb543U, 0xba247aa4bbb02468U,
  0xbcc38923bc5db4d2U, 0xbcb3c517bba0d92dU, 0x3c4fce433c065a2cU, 0xbc7291ec3c17dd14U,
  0xbbabc444bcecf912U, 0xbabd0c40bc96ce9cU, 0x3c70e18abb941102U, 0xbcc56bfebce5cc91U,
  0xbca5433dbb436831U, 0xbc2597983c904c8bU, 0xbd034dd9bbe62cb4U, 0xbcc4b069bc23f546U,
  0x3a8b81d73b854c43U, 0x3a063316bb2de777U, 0xbcb49447bc27e1b0U, 0xbc68507fbc12c8e7U,
  0xbb5a97033c34e771U, 0x3d039cd43cc22484U, 0xbc04f4c23cafe41eU, 0xbceed6453c24e925U,
  0x3c84ecbdbc7ac2d3U, 0x3c54fbfa3bc7d9c3U, 0x3c1cf1c7bc160fecU, 0xbcdadec0bcc8eaffU,
  0x3c0b23843cc4850dU, 0xbcc61dff3c5367d7U, 0xbc445aa2bcba6fc6U, 0x3c842ac8bccb8389U,
  0x3c0e42043cef73d2U, 0xbcf18bdabcefc061U, 0xbc2d96d5bd0113c1U, 0x3c2e1e443c7fd660U,
  0x3c3005da3cf7b625U, 0xbc2f87b33b9d4658U, 0xbc996706bceb9b58U, 0xbc9df0303c8a5fb2U,
  0x3a28e553bba9d6b9U, 0x3c4c6b00bcd0ddd0U, 0xbc373bd83cb3d50cU, 0xba458167bc9123daU,
  0x3c3fcb1b3c2d8102U, 0x3c06165cbc39704dU, 0x3cc2a762bc980716U, 0x3b4215083ca92ee0U,
  0xbc741f3b3c06c3fcU, 0xbcb302663ce90f9bU, 0x3bc567983c8a62fcU, 0xbcd0a56b3c50e978U,
  0x3ce1046cbb44f3b8U, 0xbc3c48173c9896dfU, 0xbb860161bbc2df44U, 0xbcb3747bbbd5368aU,
  0x3c9edfdebae9c3d9U, 0xbc7e3102bc8d9576U, 0xbce5659dbc6145f2U, 0xbcf7234f3a9e7b5bU,
  0x3aaed335bba14edcU, 0xbb44d488bcae6b74U, 0xbaf53a8d3b55eac9U, 0xbc4d98233c0e512aU,
  0xbcb71d9cbbc971e6U, 0x3ca939023c44d445U, 0x3c97ba963b7ac17eU, 0xbce312e9bc55c91bU,
  0xbbc990e3bc92f47aU, 0x3b57ca53bb778538U, 0xbcde03a93c50a5f1U, 0x3c11316dbc125c3cU,
  0xbca8cbcfbc887da2U, 0xbc47ed623c0b2724U, 0x3ca595c9bc9f446dU, 0xbcc7e6753c2c1d17U,
  0x3c11f66ebd00a7f1U, 0xbc42f562bcbad8f1U, 0x3bdc1d9bbc7cae1cU, 0xbc7bd9853b8e4cb1U,
  0xbc88d630bcea0786U, 0x3ca49400bcd601a8U, 0xbabe6fcdbcdc492aU, 0xbbe3c8413c1fcd2cU,
  0xbbd0a715bbb39bd0U, 0xbcda9728bcbfc408U, 0xbc0c508f3bdac17dU, 0x3bbd3f11bcfc21bfU,
  0xbca31576bcfa895eU, 0xbc510e17bc952ed1U, 0xbc4f5b8b3c9cf679U, 0x3c3ad4ab3aa5f983U,
  0xbb56c228bc8d7db3U, 0x3c3dc8ef3b35663eU, 0xbc070f8cbcec0fefU, 0x3d00c19b3ca53f2aU,
  0xbbff39f53cc016abU, 0xbcf49487bcaca811U, 0xbcde0fb43c2f0ed3U, 0xba0736e33c71e5cdU,
  0x3b9754bcbcd57b08U, 0x3c47a917bcaa8495U, 0x3c7c05793c0fa556U, 0xbcadf9a13b4664dbU,
  0xbcc4fd213b066a99U, 0xbb46c33ebcc1b66eU, 0xbcc75498bb41ec9dU, 0x3c2be9953bc4b1a0U,
  0x3c288750bc539d30U, 0xbb3a29103cb477b6U, 0xbc712f94bcc9752aU, 0x3c23fde43c4028f1U,
  0xbc041f72bbd859b6U, 0xbc240092ba79ac71U, 0xbc499f9cbb2714f1U, 0xbc9455ddbb4b92b0U,
  0xbcc2793ebcab2af3U, 0x3be3c1603c0c6819U, 0xbc185d79bb9d6732U, 0xbbd020813bf819d0U,
  0xbcdfeb18bc182c0fU, 0xbd01d4cabc904ebbU, 0xbc2b3584bcba5136U, 0xbce2bd6fbcb7b319U,
  0xbc14ec473c08faccU, 0x3ba03dd9bc8083ccU, 0xbc3a73303a59a0d5U, 0xbb115abb3c45f087U,
  0x3b861ac0bb8c056eU, 0x3c8754853c31945aU, 0x3c30c2e43cfe8b32U, 0xbc06c1cdbcb9a39aU,
  0xbcf72cafbc3e0cb8U, 0x3ccee06abad0026eU, 0x3ad87e69bcba509cU, 0x3c1c1d2f3c7c532aU,
  0x3c68469ebb5db19bU, 0xbcd011f03c9134e7U, 0xbcbde2383b257ea5U, 0xbcc66d0dbc5f127eU,
  0xbb4ee75a3bf37c82U, 0xbc9d0f86baaa8ecbU, 0xbc7653dbbc09608fU, 0xbc5b056bbc6271b2U,
  0xbaca65ef3c82c037U, 0xbce9b45b3ca4b5cbU, 0xbca019bfbcbd6a02U, 0x3c643c053ba549d5U,
  0xbc7424383c0e5576U, 0x3c98ba353a8bf7a1U, 0xbca157c1bbd0b7feU, 0x3b520b113c9605bdU,
  0x3bcb1bfbbc986d1dU, 0xbc620fa43c84192cU, 0x3c833bab3bb0acffU, 0xbcee18a13c2d9f59U,
  0xbc6fa9993b33d28cU, 0xbc3565a3bbb794f8U, 0xbb9750973ab8f15fU, 0x3c81df5fbcd1deaaU,
  0xbcf784e0bbec4459U, 0xb9964d17bb11abf4U, 0xbcfe9e9fbcd79fd6U, 0x3c398b773c10a6bcU,
  0xbc93a8adb98691f7U, 0xbcc4b368bc0263acU, 0xbc0365233ba9f4a0U, 0xbbac971fbc0a3f2eU,
  0xb99d47213bb43be7U, 0xbab5d0a3bb3aed84U, 0xbb2bb97e3c48fb09U, 0x3cd811c6bc038068U,
  0x3b40fe173cd339acU, 0xbcee5d01bc2a2931U, 0x3c4c1345bbc8bc71U, 0x3b48e9eabca93165U,
  0x3b0b937cbaaeaab2U, 0xbb326a18bbb1e838U, 0xbb5cb818bbbde5b9U, 0x3cba317abb84b183U,
  0xbb87d730bc1a2d94U, 0xbcca2272bc487cd1U, 0xbc07592dbce6d085U, 0xbb8316e83c1213acU,
  0xbccc57d8bcdfa9e1U, 0x3c77811abc0c6514U, 0x3a7da5a0bbf19932U, 0x3c903270bcdff131U,
  0xbcc798fbbccb00baU, 0xbb93acb83bb44709U, 0xbc6541443c47d0c1U, 0x3bdb32a5bcd92020U,
  0xbc0019323bf2688eU, 0xbbcfc4d0bb2cb26eU, 0x3c7e5477babf7685U, 0x3b909180bc234c10U,
  0xbc9bf8723c9c43abU, 0x3c883c533c0b836cU, 0xbad4c0b2bb936220U, 0x3ce3ea0abca3fc66U,
  0xbd05ed02bc8d9554U, 0xbc0494b9bc936290U, 0xbc9b9031bcabd098U, 0x3cbc253b3a3758cbU,
  0xbc6879a9bcbf90feU, 0xbb23a9c5bc548c7fU, 0x3b0cbf9d3c84eaedU, 0x3bdc1295bc8b9b24U,
  0xbcc453413c63e8dbU, 0x3bb1950fbb8a050fU, 0x3c917442bcb53aceU, 0xbc219a87bc653cc1U,
  0xbc6ba72a3c35cffcU, 0xbc8fb96f3848a4abU, 0xbbb40b513c0647deU, 0x3c187d36bd0b6545U,
  0xbb827094bbac0b43U, 0x3bf1c8d9bcc303b2U, 0x3ba6fd6a3ace389cU, 0xbcf4f36cbd177e9bU,
  0x3c870038bca3e674U, 0xbd083044bbdf42b4U, 0x3bdab6e7bbd5b180U, 0x3c4b7233bc9328b2U,
  0x3c5da116ba5daef2U, 0xbbd3d6dfbc832469U, 0xbb85fe1a3c1b7852U, 0xbca51bb7bc9694c1U,
  0x3c93d7d7bc8ddf27U, 0xbcebf780bcd01deeU, 0xbc92e9e0bc91c70fU, 0xbc18f40ebcfb2e0cU,
  0xbc7155443b93af65U, 0x3ad51010ba95c1d2U, 0xb9b12f6fbcf7554bU, 0xbcba2ad3bb48e48eU,
  0xbc8127b1bc4df9c5U, 0xbc27d936bcd787c1U, 0xbc95113ebada943cU, 0x3c30cd04bc5c5707U,
  0xbcdc7ebe3bdc52e0U, 0xbccf89b4bd25184eU, 0x3cd6ef2cbc7d3b50U, 0xbcb289573c480d36U,
  0xbcc58adf3b429c06U, 0x3bfb4167bb5dd60aU, 0xbc93fc3bbb47c1eeU, 0xbc290032bb59da4dU,
  0xbbe5a285bbecf489U, 0xbb1ac6da3c2ad8d8U, 0xbce011833c895254U, 0xb8bee70cbcce9823U,
  0x3ba76e1c3b028bd4U, 0xbcc74a543b2d6ac9U, 0xbc39c461bbf40203U, 0x3bbde3f4bc23935dU,
  0x3b8d2f94bc81b72dU, 0xbcc53f3ebc062a3dU, 0x3ba753c93c4d2f2fU, 0xba20fa263b9d864aU,
  0xbc1294833c36517aU, 0xbcbbfceebc7aecd0U, 0x3bcfd9243bde5ce4U, 0xbcf29054bc5e556eU,
  0x3bc32b87ba589f50U, 0xbc953d6dbbe342dcU, 0x3c43a0d0bc8cedc3U, 0x3c91ba9bbce21c25U,
  0xbccf31743c4df2edU, 0xbbec9fbbbc5729e2U, 0xbcca30a1bb3c4025U, 0xbc0d36b4bcf66a5cU,
  0xbc11473abc104567U, 0x38818b5f3c0b1eb1U, 0x3c83e1b53c9b5854U, 0xbb23f2edbc62b705U,
  0x3b1ce5293bda7034U, 0xbc80cdc43cf1431dU, 0xbd048fa03ba7093bU, 0xbbb7ed7b39874f33U,
  0x3cdcfd113c8665baU, 0xbce70e3a3c657788U, 0xbc588d14bca7915bU, 0xbbe9bcf5bc4545e4U,
  0x3b732b98bbc6a14eU, 0x3c87e07a3baa780cU, 0xbc5f5453bc85b12cU, 0x3bde0af0bbe6807aU,
  0xbc0d3afebcf06c04U, 0xbcfe98943bc0e075U, 0x3bb42201bd007dc5U, 0xbb18bebfbc3ad125U,
  0x3a84c4d03c26be55U, 0xbc82bfa8bccff56aU, 0x3b5e34d9bc737f15U, 0xbc93a7c43c4e7043U,
  0x3bb5bc5a3b733e02U, 0xbbae5e87bcc48fe3U, 0x3c95d282bc8606ebU, 0xbcde358b3c14bac9U,
  0x3c8d6257bb04c43dU, 0xbc097c853c280e9bU, 0x3c674780bbb805a5U, 0xbc1da36b3bae9934U,
  0xbc7b35bbbc6d68a9U, 0xbd076eccbc4700bfU, 0xbc33efce3ca1e05aU, 0x3b155d4bbb59fa4eU,
  0xbcfaf04836b36af9U, 0x3b1d3a5fbd06bcebU, 0xbcf9757fbc0b9d79U, 0xbcba75cbbbf1fcc1U,
  0x3b66e9f0bb94f007U, 0x3c30f6f53c9bb840U, 0x3bf77ee63c38e395U, 0xbb6a0a833b17ff78U,
  0x3c6fa7bf3ca703a8U, 0xbce50414bc97fda9U, 0x3b2ceba23c8ac4abU, 0xbc0b52ae3c11db1bU,
  0xbb9f9a4dbc469958U, 0x3c96224b3c9fe16cU, 0xbba10e80bcd01d44U, 0xbb494f49bcf832faU,
  0x3c480aa5bca8daeeU, 0xbca25cb7bc407020U, 0x3a92257dbc1e6bf2U, 0xbaea58acbcdd4e38U,
  0xbbc370dd3c231b41U, 0x3ccba0cdbcba1721U, 0x3c1cf4c53c8bc343U, 0xbc8aa42e3c8d47dfU,
  0x3bb037fabb81774aU, 0x3b20028b3c46f599U, 0x3c8dc014bb0bb548U, 0xbc2947a73c734412U,
  0x3c7e40963ae09b00U, 0xbccaea1abc0a5dc2U, 0xbd2a307abb187d73U, 0x3b19f8183ba9b1dbU,
  0x3882da91bc08206eU, 0xbccc368bbc8be7e9U, 0xbc22969dbc5a2f38U, 0xbc5a1472bb1a8312U,
  0x3c7ed0003c32af05U, 0x3c1f0f8b3ba95193U, 0xbb2cbc9a3c464378U, 0xbccc6aecbc74a6f1U,
  0xbc6eb0623acd4d5eU, 0xbb9495b0bd008d1cU, 0x3ca7c721bcd552bbU, 0x3b3d4797bc242a67U,
  0x3c0bc804bc36048fU, 0x3cf856ffbc5b1c33U, 0x3c9728323cad3ba9U, 0x3c84ffb13c124371U,
  0x3c8165163c833a66U, 0xbc06215bbca4fe83U, 0xbc3a67473c5cbc7cU, 0xbca7e9a6bc38b1c9U,
  0xbc4dd2823cb22ba3U, 0x3c309466bbeb0086U, 0xbcac42eebb972109U, 0xbc4269b3bc1b9dd1U,
  0xbbe74537bca818dcU, 0x3bc41de03c03e6b8U, 0xbd050642bcb048e6U, 0x3d08dfedbc2eccdfU,
  0xbc1e13763c302054U, 0xbb67a699bc50ee0eU, 0xbc2b0b543c4759f8U, 0x3aa38a943b816c7dU,
  0xbc363b42bbae3c79U, 0xbc4386cebb47aac8U, 0x3cb7dcdebb4ffda5U, 0xbc218819bbdfc028U,
  0xbcd548323bcfb9acU, 0xbc4799c2bca0be0bU, 0xbba8fd813ca46257U, 0xbca9d6893c12dbf9U,
  0xbc763ef13c34e245U, 0xbc4bc78f3c60d362U, 0x3b79b2edbc6d79acU, 0x3c98d10bbcb65081U,
  0xbc33df87bc968818U, 0xbcf95aef3caedd95U, 0x3c288ee5bc2bec0dU, 0x3b3d03b8bcff42e8U,
  0xbcf2343c3b4479d9U, 0xbcb41ffa3cc2fa64U, 0xbc2eb1a93ce36268U, 0xbb2913f9bbc9130dU,
  0x3c152c0bbc509abbU, 0xbca20ee83c84edfbU, 0x37a13f0fba012811U, 0x3ca1bc3d3c8f744bU,
  0x3c8b348cbc14167cU, 0xbcd2e368bceffa9cU, 0xbc8c756abb592043U, 0xbcacffab3c258b75U,
  0x3b547fa4bb0741b1U, 0x3ae204debb3fe698U, 0x3c9a63f5bcd9e9e4U, 0xbc50a703bc956016U,
  0x3c17eaa6bbd82f31U, 0xbbeb9048bb917965U, 0xbc7a3eadbcdbfa4cU, 0xbaa5065fbcadd08fU,
  0xbbdc4ce53c05c638U, 0xbcdeb86ebcb822d7U, 0x3c4144a43b0260ecU, 0xbcd4edd5bcaa2563U,
  0xbc6baca13b1f6f18U, 0xbc05d0c13cf468caU, 0x3c7aebb1bc81f273U, 0xbc49e2cdbcd8e81fU,
  0x3b971018bbd4bc2eU, 0xbbbe09363a0f35efU, 0xbc314d973c55919fU, 0x3af08eb0bca6328fU,
  0x3c62748a3b22015aU, 0xbc83c28f3c9597c1U, 0xbc370c1bbc205102U, 0xbccecdd43ba89462U,
  0x3bb3cb2b3cf2189aU, 0x3c51b879bced9a2aU, 0xbce506d0bcec0dafU, 0x3b61f80f3bdae809U,
  0x3c3034a3bc55b1ccU, 0xbb3c285cbc15b35cU, 0x3c60dfd33c95053fU, 0x3c4129533cbced7bU,
  0xbbdfde73bc6cec31U, 0x3b31ce03bc51b76eU, 0x3c532b33bcb27e45U, 0xbad29638bc9c6f47U,
  0x3bc9bbbbbc84ad9fU, 0x3b3ff385bc5b5045U, 0xbccdabf93c053708U, 0xbc6c467fbb23e79aU,
  0x3c4af8b0bca857e3U, 0xbc374277bc2819cbU, 0xbb080261bc22cc01U, 0x3c0ab1febce5b6ddU,
  0xbd0503cdbd203149U, 0xbb465495bce8143bU, 0xbc8973c73c562a3aU, 0x3c883ddcbcac1759U,
  0xbc12561a3b5acb41U, 0x3c11ff87bc73f66dU, 0xbcd139f1bce5e43eU, 0xbced03123c5a36cbU,
  0xbcd7d98339aff0f0U, 0xbcd2fd22bca2d656U, 0xbbd99a9f3c42d715U, 0x3c83bcc3baf85873U,
  0x3b76b2ccbccc42cbU, 0xbbcc3915bcece5e2U, 0xbc852138ba8d9bc6U, 0xbced3647bc509a79U,
  0xbcf42a7c3b145db4U, 0x3c09198abc9660b4U, 0xbcd61713bb5a4621U, 0x3c1333d3bc30c583U,
  0xbcecea39bcc6819cU, 0x3ccaa770bcbbf9a0U, 0xbc04a4b03c6960f8U, 0x3c40f58bbc4590b7U,
  0xbb8cd041bbf96e88U, 0xbc824dc7bc9f2f34U, 0xbb03a59dbbeaa825U, 0xbc61e0dabbac0c17U,
  0xbca5ccecbbc2e418U, 0xbc33c991bc636d68U, 0x3c4e5bd73c107525U, 0xbc9f445cbc220fe5U,
  0x3c7e9bae3c6834efU, 0x3c7789383c81f35cU, 0xbc874c43bc86d565U, 0xbc10ae75bcdae8ffU,
  0x3aa026eb3c93048dU, 0xbcde1b833c9754a7U, 0x3c015d1ebc001d2eU, 0xbbbd51d33c5688f1U,
  0x3c70cca4bca55da6U, 0xbcf20463bbd3c6baU, 0x3c4b33b3badf160bU, 0x3bf63e6c3c8a179fU,
  0xbc92dc2fbcc360acU, 0x3c3d9b133be16dabU, 0xbc3066093c480fd1U, 0xbc666c5fbc8a5f42U,
  0x3c3717493c68efc3U, 0xbc8f7f75badbb0e4U, 0xbc32549e37b4d2c9U, 0xbcc1ab60bd09bc7bU,
  0xbb18c9a6bab0e4c0U, 0xbc1b3df23ca92a17U, 0xbd08db993ca9e505U, 0xbceaade5bc83db79U,
  0xbb988b9dbc8f2044U, 0x3c770e6c3c317511U, 0x3a278438bc0ba5a2U, 0xbceda81bbc4fa872U,
  0x3a84ad663c0a6eccU, 0xbcd1e2a9bcbee45eU, 0x3cc88b74bcc9523aU, 0x3c71f5e2bcbce32eU,
  0xbbf8d16cbc4e34aaU, 0xbcb65faebbe9a26fU, 0x3c96aa40bc502079U, 0xbc71271bbbd43d08U,
  0xbcafd7e83c999263U, 0x3b248cacbc1691ecU, 0xbccbbab73b35317eU, 0xbc7b4fa0bca37be8U,
  0x3c2cb4e0bc8b1772U, 0xbc03d3ec3cb1152bU, 0xbb597da03cb6a57dU, 0xbba379b8bbd1e06eU,
  0xbc81210d3bb7e1e9U, 0xbccb1b68bc316eddU, 0xbc8938c43cbe7b04U, 0x3b8851093a9c6586U,
  0xbce29efbbb780f5bU, 0x3bfd325ebcd0feaeU, 0xbca8154bbc828730U, 0xbca6f2ca3c77a3d1U,
  0xbc16ffa63bd83b82U, 0x3b950b54bbcfbc58U, 0xbc11e86abc96913aU, 0x3c57a57bbc9a7fcdU,
  0xbceb1c423ca7cf5eU, 0x3b96d0fabce83a90U, 0xbcfddd2eb952f197U, 0xbcaeed59bcc318caU,
  0xbca52f083c1ce57bU, 0x3c9b9d34bcfa49e2U, 0x3c1604113bc38d1dU, 0xbcaa93d83c2e8d53U,
  0x3bc5f52d39d8a757U, 0xbc34d281bc084007U, 0xbcbe541cbcd4879bU, 0xbccb4282bcc6d204U,
  0xbcb222053c8fa027U, 0xbcb790d6bc204816U, 0xbc7366a9bb963591U, 0x3a47dd8cbcb4a114U,
  0xbc8d0fc4bce67911U, 0xbc2365f3bcd097bfU, 0x3bd902bd3c8dc7d6U, 0xbbb9afb4bc9536c1U,
  0x3c7e916c3b1dcdebU, 0x3c29ca4cbc5bb188U, 0x3c631efd3c5cb2bfU, 0xb9d86c98bba75e0cU,
  0xbbe3b68a3c1bcc31U, 0xbbde5a403b1b234bU, 0x3c07069cbcf2a582U, 0x3b61d0fcbc3ebc26U,
  0x3c92bc3ebcc8dcb1U, 0xbc6f05673c94bc22U, 0xbc8934ae3c867a4cU, 0xbce09dfbbb30717bU,
  0x3a7d37a83c5ba620U, 0xbc8404a8bc511484U, 0xbc58aa2bbcd8cb4aU, 0xbc216898bce5a0b8U,
  0x3cc7555ebb8e11eeU, 0xbb06a5d3bcd8198bU, 0xbbda4020bc0aa638U, 0xbc2ebed5bcc3fbeeU,
  0x3c611f4d3b9969afU, 0x3b1805f0bbca45b0U, 0xbcbfdea13b828d54U, 0xbc0349bebb6d6380U,
  0xbc8367ba3cf99a0eU, 0xbc2c4b8e3bd5c6d0U, 0xbcc459f43cacbd96U, 0x3c9f6b42bc95bef6U,
  0xbb48dff0bc875fa6U, 0x3ccce52abc8451dbU, 0x3b83fe573c22b5d4U, 0xbc016c3a3af11c14U,
  0x3cb4177e3c09b830U, 0xbbe96b80bca589c5U, 0x3c8a88033bf15cb8U, 0xbc98f63e3c396e0dU,
  0x3c496e903ccb7334U, 0xba42a5513c668890U, 0xbc2c42adbcf42404U, 0xbbf8d61c3c82c744U,
  0x3c7524403c3e4d88U, 0x3c244cdcbc4625bbU, 0xbbfba7683c697573U, 0x3a373b0bbb8c53c0U,
  0xbc2ea582bb6b89a3U, 0xbb624a903c242b20U, 0xbc16770cbca3ee50U, 0x3cc8e94a3c2346dcU,
  0xb9748500bc77e812U, 0x3c2d7cf8bc50dc6fU, 0x3bde4ea83aed3600U, 0x3c3a15383c4afb40U,
  0xb980b0c03c9d2f00U, 0xbc5ec0b43c04f4e0U, 0xba8c59c43b353507U, 0x3c1ab05ebc3de6e3U,
  0x3be0a852bc2cda7fU, 0xbcb94eb53a238fa8U, 0xbc92c4393a7d4e60U, 0x3cd8c704bc0aaec2U,
  0xbc1cdd0bbc76df3eU, 0x3c84c70abbd34bd1U, 0xbcbda1383c58be4fU, 0xbcdb0415bc35ecb8U,
  0x3b385b1a3a31aa58U, 0x3c1cb1f43c6af3edU, 0xbcb3b64bbc28d57eU, 0xbba012fb3c753a1cU,
  0x3a9f269cbc8fff7aU, 0xbce977a5bc8bcd0eU, 0x3c02876cbabc88adU, 0xbc06c4d23c3a9d92U,
  0xbbabcec63aca029aU, 0x3c3317f63c97a5f1U, 0xbc27d2e13c838136U, 0x3c23b34b3c23f576U,
  0x3b4345583bd92656U, 0xbcac4df3bcde5752U, 0xbcb7ecd43c3bc105U, 0x3c8798a8bc9950ffU,
  0xbc822b93ba97ec53U, 0xbc6f92bcbc827eb6U, 0xbc7147d93c8a545cU, 0xbc75e7083b028606U,
  0x3c32df07bbb9f7ccU, 0xb940f5b3bcdb90b0U, 0xbc37d3493c6650f2U, 0x3ce185e93caa1317U,
  0xbb54c46a3cc98fe2U, 0x3c65cfc13b891b3aU, 0x3a8f1b1c3b144949U, 0x3b8679e4bc2f0144U,
  0x3bb7e1e7bcb4497fU, 0x3cbd2551bc6686f9U, 0xbcc80ae3bb615358U, 0xba89cc10bc710787U,
  0x3ac8006ebcd841b7U, 0xbc5e9b26bc393818U, 0xbc5df1dcbb7a0341U, 0xbcf000d73bdcbd20U,
  0xbb4b1dfa3cbbee54U, 0xbc9d077eb99fc9efU, 0xbc4f7b903c8142eeU, 0xbc4bff32bcac6bbaU,
  0xbb52287cbcba081cU, 0xbc5866433cb3076eU, 0x3c5671c8bc406e8fU, 0xbc83846abb87608cU,
  0x3c48e2d4bb8366b8U, 0xbc7849d8bc737570U, 0x3cb7ec46b8266600U, 0xbbdbc078bcb46247U,
  0x3b9d51f83c547df2U, 0xbcb1998abc1c65bfU, 0x3c449810bb3c820fU, 0xbcd41cc3bc61ff15U,
  0x3c44cf113c97c904U, 0x3c2e4835babc1b90U, 0x3c7c63333c1231d7U, 0xba0ea4a0bc65fe2eU,
  0xb9bad2c03cbd3005U, 0xbc046c3a3cc9b1ceU, 0x3b9ee14fbcfa0d55U, 0x3cce62923cc4a16eU,
  0xbc5cec52bc8c6b6aU, 0x3bfdeff83ca3acecU, 0x3c888c5a3cc111c0U, 0xbcef58d4bc8fabfdU,
  0xbb007d123bd9730dU, 0xbc9701ef3bd2f3eaU, 0xbc8ba5923bcdb5a3U, 0xbbb07332bc403cf6U,
  0x3bff38dcbc93fa20U, 0xbbf35cfd3c15c252U, 0xbcabca093bf26b7aU, 0xbb7a907c3cf084b4U,
  0xbc75707ebbcd8ec4U, 0x3c27fe21bbcdf17aU, 0x3c91e45c3b986bfcU, 0xbc2e2eaabc9f2160U,
  0x3bcd8f0fbccceb60U, 0x3c6a91e5bbbadaa0U, 0xbc501444bb57dcaeU, 0xbc0392d1bcdb0e0aU,
  0xbc13f75bbb88e8d4U, 0xbcbe2f5cbb25756bU, 0xbcfb32b2bc049b8cU, 0x3b899407bc877154U,
  0xbb6541cabc845e07U, 0x3c5b70d3b9bc5b74U, 0x3c279fa53c953bdbU, 0x3b81df88bb28d585U,
  0x3c37530f3c96cfe8U, 0x3abb1d3cbac05f06U, 0xbc7ca1acbcd458a4U, 0x3c8da1ff3c11766dU,
  0xbbebf0d5bbba03ceU, 0xbc68d018bbdab44bU, 0xbc1d66683c8a8f4dU, 0xbca61159bc30380cU,
  0xbc62ebafbcbac562U, 0xbcb33f71bb059902U, 0x3c71415d3b8567bcU, 0xbbdd1e253a45eef0U,
  0xbc810a17bca557e1U, 0xbcdba09bbca949b4U, 0xbc33f3393c2400fbU, 0xbba3b5cd3c82ac0cU,
  0x3c8c293ebb3755efU, 0xbcddd29fbb13c54cU, 0xbca30491bc1c32c7U, 0x3c8698ae3c719a1cU,
  0x3b40a88c3c686cacU, 0x3c7047afbbe3643eU, 0x3b8f36ab3c8074eeU, 0xbcb3556d3c36a4ffU,
  0xbba8469dbc8b0fdfU, 0x3c84ff0ebc36ad04U, 0x3c50a1edbbd1e5abU, 0xbcb4a158bbd252abU,
  0x3c59a5853c928df3U, 0xba9c9e253c2be99eU, 0x3bf98c22bc4cec54U, 0x3c9c8307bb2f49b3U,
  0xbaa61952bbd50679U, 0xbcda93b8bca7f02eU, 0x3c56d1d2bb4242e1U, 0xbc80ff5c3a7aee5cU,
  0x3bceeb2fbb863ec2U, 0x3b17870aba5490b2U, 0x3c99d9c53c011123U, 0x3b896e74bb3a7475U,
  0x3c6eb1e7b93d904fU, 0xbc0a1c0ebaa87ad1U, 0xbcf2abafbaeb03a1U, 0xbbcfd64fbc84f5a6U,
  0xbcd53498bae87a36U, 0xbaf4df0d3bb8cdacU, 0x3c08e8be3bc614c6U, 0xbcedc377bcbed26dU,
  0xbcb237e3bbd73c8dU, 0xb98a2ec0bb2c2090U, 0xbbc7f8b3bbd9abb0U, 0xbbf889f83c28526dU,
  0xbcb485883c814e33U, 0x3c8f2b2ababf76d0U, 0x3c7123993c42fe34U, 0xbc834d4c3bc7bd2cU,
  0x3c274465bc333962U, 0xbcdd30cd3bd29e68U, 0x3c84cb33bb936979U, 0x3c5580f0bc078750U,
  0x3c50f44dbb89b95eU, 0xbc8ed3d03b169b96U, 0xbbd23174bb459f66U, 0xbcf84ef63c8f1e96U,
  0xbcadde3d3c54ecaeU, 0x3c84c38fb9eb0067U, 0xbc8f8b7e3c8e0a9dU, 0x3c29b9703c731048U,
  0xbc0b91693b17e71bU, 0x3c88bb5cbc85a1a5U, 0xbb7b63a1bc68a8e3U, 0x3c89bf3bbced7b30U,
  0xbaf6c2823c357a3fU, 0xbcdb4989bb8eaf2cU, 0x3c997a79bcfe8822U, 0xbba17a6f3c5a9f46U,
  0xbcedca79bab20f0eU, 0x3c594e19bc2dc296U, 0xbb554133bbe794efU, 0xbc9846243bda27d2U,
  0xbcace43a3c80c123U, 0xbcc7a5bd3c60fa56U, 0xbc869a793b38b89dU, 0x3c072860bcc163fdU,
  0x3bb34f883c72af1eU, 0xbb7cf5a93c77d277U, 0xbcc3676abbbdfda0U, 0xbc9e5a26bc2862bdU,
  0xb96bfa1bbc081975U, 0xbb7046c8bcd14e57U, 0xbb932754bc175affU, 0x3c4e437cbc4e75b7U,
  0xbc9bd8bebc51f1c2U, 0xbc9e1dcdbc4d6064U, 0x3b3608ee3c842616U, 0xbcec98b9bbab8bf9U,
  0x3c81c8623c9adce1U, 0x3bdda2edbcbbaf02U, 0xbc98ca07bcb55ab6U, 0xbc08d40fbcc0231cU,
  0xbbb46a66bcc197fdU, 0x3c503de5bb5348bdU, 0xbcfac4b5bcb9c53fU, 0xbc0078843c961c72U,
  0x3c1c7ca03c2f7b6fU, 0x3c0fb0ea3b8ebfc8U, 0x3c6111383c228f08U, 0x3c970684bce41c65U,
  0xbc5bd2d4bc3babf4U, 0x3a76d20dbcbddb92U, 0xbaf6c92cb9ffaf50U, 0xbc38e6923c1edc30U,
  0xbc470966bcb3bf36U, 0x3c8029013ac95620U, 0x3b9b1b1bbc1cf526U, 0x3c7a9634bcd6eb47U,
  0xbc7af02dbbe73344U, 0xbcf600b4bc64a681U, 0xbc578bb4bc49d6abU, 0x3b19473b3c95ccc4U,
  0xbc1521cebb9c239dU, 0x3c083030bccdd845U, 0x3c7ea931bbb55e57U, 0xbc0690f9bb730583U,
  0xbc98aa7fbbe0dddaU, 0x3a9230a83c9c0c6fU, 0x3bd976bc3c7a1e3cU, 0x3c9972ebbb8d7f64U,
  0x3ba28066bc8b6ba2U, 0x3ce21d83bcdb6276U, 0x3c8e9449bc9a4163U, 0xbc982fe03c94b21aU,
  0xbccfb3e53c1215daU, 0xbcf98e023c187b3dU, 0x3c7b424c3c8a26e7U, 0x3c9319003bf53e40U,
  0xbc40056bbcc904a8U, 0xbc4f7a96bc9f66cbU, 0xbc939176bcecd8f5U, 0xbca60fa8b98b33a9U,
  0xbc5e1ad73c85bb2bU, 0x3c79f610bc85af0fU, 0x3b0162da3c45c2c3U, 0xbccdfe963c8bc8e5U,
  0xbbc5c13bbcce4a3eU, 0xbcc728a2bcefabf2U, 0x3c4cf7523c2f251bU, 0xbcd875883c3a8d3bU,
  0xba49ad73bc58d59fU, 0x3c40cec43b81af3eU, 0x3bb85a03bc7fd69bU, 0xbc1f2f663ccbe29eU,
  0xbcc711e3bc5b3b1eU, 0xbcd3d9d6ba614e52U, 0xba6bcf6ebcf2b71eU, 0xbbedfc31bc748582U,
  0x3c85a7c9bb9ddfbeU, 0xbc2367f7bb32b385U, 0xbc211c573cefa2d0U, 0xbc3a84e4bca3c230U,
  0x3c916e353c8c0b53U, 0xbca5fa60bca16521U, 0xbcad8b0a39cab910U, 0x3bd92b8a3c34e651U,
  0xbc88261abcf1154bU, 0xbc153b9b3c865ffcU, 0xbc8538c1bcecd439U, 0xbb0fdf903c611fcfU,
  0xbcd3efda3c1685b8U, 0xbc92e357bccb339bU, 0x3bf7f5b8bcaa640fU, 0x38bbc268bc487f8fU,
  0xbcd7b729bcdaf8b0U, 0xbb861f3abcad80f6U, 0x3c465a783c619852U, 0x3cc8ba643bacde16U,
  0x3c8920fc3c184cceU, 0x3a74ccf33c645c43U, 0x3bc9b5503c9294aaU, 0xbc47f2ee3b4b299cU,
  0xbbb4d5c3bb8f3f83U, 0xbc4b8eaebc52e522U, 0x3c8fde523c95d0ddU, 0x3c83e84d3a4b2b34U,
  0xba7aebfd3c9bf1f9U, 0x3ba102ccbca25d58U, 0xbceb301abc3e95aeU, 0x3c7d6c973bb76071U,
  0x3c0d43913b95e504U, 0x3bb7aecebb90e68fU, 0xbbc02e40bb9a3707U, 0x3b448763bc3a8d5fU,
  0xbcbcd381bce0e69bU, 0x3c70669ebc332bbcU, 0x3cb8f375bcdd4eb7U, 0xbc2f6f02bc29d12eU,
  0x3c7143083bffb330U, 0xbba4326c3c8cac32U, 0xbca604c0bc2f71f9U, 0x3c11f057bb387388U,
  0xbb2554223c877cc8U, 0x3a9996ef3ac9a63aU, 0x3c883c13bcc455b4U, 0xbcd7721e3ce0a0d8U,
  0xbc0ce2c83b1a84a9U, 0xbbcce1f1bc336db3U, 0x3c096306bb6de31cU, 0xbcfa6370bca86088U,
  0xbc0f5640bc4337e7U, 0x3c74120e3c59593bU, 0xbc41637dbbd2c325U, 0x3c86509e3b8392ebU,
  0x3cd2ed84bca58a3eU, 0x3c8e89d8bb0946b0U, 0xbc96bf133c845754U, 0xbca388ecbcd1ce2cU,
  0xbc3972343b13c69fU, 0xb911d5fa3c264d48U, 0x386056cc3bf127cfU, 0x3abaf9263c554397U,
  0x3a78db403c15e36cU, 0xbc72b416bc95d4bbU, 0x3cdb48a7bcb3ce0dU, 0x3c13de2c3cc57232U,
  0xbc6fb2f73cb4c42cU, 0x3c72f6a6bccdcff2U, 0xbc38ae9fbb705ee1U, 0x3a9282b53c712474U,
  0xbc684b803c14d4dfU, 0xbc7f626abcff3fccU, 0xbca06dbcbc9ae076U, 0x3cdeb897bc59222fU,
  0x3c148be8bcd2a617U, 0x3c8d15243c5cd708U, 0x3ca9a5fcbbf24f68U, 0x3c5fa27bbbffcd73U,
  0x3c5b5dc8bc9ac639U, 0xbc99e19f3b162149U, 0xbb20c8f73cc26b78U, 0xbc244a303b006225U,
  0x3ab47a5fbc8be6daU, 0xbc6c5773bc9e091cU, 0xba7ae969bbb974dcU, 0xbad85ceebcf8d30aU,
  0xbcb2d85ebc1ddb78U, 0xbc7ed4f83c4fe7c4U, 0xbc818ec9bbca57bdU, 0xbcf99cfdbcb14f7dU,
  0xbbb395a4bc8f293dU, 0x3b6f50b43c2b157cU, 0xbc8bd4703a8c30edU, 0xbc3edd49bcb696abU,
  0xbc206ff3bc1af77eU, 0xbb01e6c4bcc470b8U, 0xbc9fdba63c5e4773U, 0x3caab7be3c363f0fU,
  0xbc8d7934bce69963U, 0x3c2f2544bc9631bdU, 0xbbc1408e3c937300U, 0xbc06c9533aa377dbU,
  0xbbafabb3baf36fa6U, 0x3c9b0c6bbc91fae1U, 0xbc68c7b73a6d6d5bU, 0xbc6b8e19bba41fabU,
  0xbc9994b1bc9318a0U, 0x3bd53bb6bcabb082U, 0xbce48b29bcb791deU, 0x3b1c15753bbb5776U,
  0x3a7f4d76bc6bfa25U, 0x3bb50938bc452fedU, 0x3bdd751ebc9a6e88U, 0xbbf7c359bc9b0ecbU,
  0x3be61fc83c8acf67U, 0xbcf87f053c4d0e65U, 0x3bfafe27bcf2a8b7U, 0xbccdb43dbca8404dU,
  0xbaac3462bcbfc468U, 0xbba21ca2bc4f0360U, 0xbce8264bbcb9c0c8U, 0xbc6346b53c83437bU,
  0x3c0f47223c8ac329U, 0xbc87bffabceb43c6U, 0x3bf9ee163bd4a050U, 0x3c1e8a25bbf2df58U,
  0x3c0c71debcefb7d1U, 0xbb604569bc04d987U, 0x3c92751a3cf15969U, 0x3c882df8bccdc6f7U,
  0xbcbd0e433b18391fU, 0xbc51b1b73b3de646U, 0x3c9907aabcb3bc12U, 0xbbb95f29bbd02f3aU,
  0xbc3cf4a03bfba665U, 0x3c5e96e0bc2a5613U, 0x3bfff6b2b9de1743U, 0xbcc0a428bc0a531eU,
  0x3b867f4a3c880fdbU, 0xbcaba36a3c1618b3U, 0xbc36ab903c2aed58U, 0x3c19bd73bcff68d1U,
  0x3c93a063bb9db0f0U, 0xbc403823b9f15365U, 0x3c7a48a23c661c1bU, 0x3c03d5d23c7da9eaU,
  0x3aed27c6bc638c17U, 0xbcb1b665bc548b05U, 0x3c9ad23a3b8480eaU, 0xbce2f6afbcf6aa43U,
  0xbc0a83303c4dd496U, 0x3c8da29cbc2d5f89U, 0xbcf560ecbaf36776U, 0xbcbf305ebc05b0abU,
  0x3c986bd93c8f85e7U, 0xbc90b2babc63aca2U, 0xbc0f5dc0bcc80f67U, 0x3c0fa742bc368ac0U,
  0x3bb54f73bc9fb10aU, 0x3c9405cebcc53858U, 0xbcbf087fbcd79e68U, 0x3c96865a3ccda290U,
  0x3cbbe302bc0e0e70U, 0xbcbf479b3c78d89cU, 0x3c1f18e43af8ee90U, 0xbbd6ddb4bc8823e6U,
  0x3c69266cbc03ee40U, 0x3bce44a0bcac60f3U, 0xbcacdfb53ca9cab6U, 0xbc06e9b03cca43c8U,
  0xbc09cae93c7c2ad8U, 0x3c8526423cb4224eU, 0xbcddb1553c69cd84U, 0xbc7df1f3bcc08e87U,
  0x3cc4614a3c8bfcb7U, 0xbc87a474bc8e6f38U, 0xbc02145cbca5f4d8U, 0x3c087cb2bbfcf412U,
  0x3c4c1fb03c8101ecU, 0x3ce2865f3c8f6b32U, 0x3c068523399f8d54U, 0xbc223da9bc83e186U,
  0x3c39f69fbbeb0bb0U, 0xbbc68197bcd8354fU, 0xbc88c0d43c2802ccU, 0xbc93da633bc546c9U,
  0xbb886fb1bc787158U, 0xbcecdd713c6710f0U, 0xbcb68cdc3bac9689U, 0xbce6090dbb4caa10U,
  0xbceca2a438f5135eU, 0xbbe8e6bebca17553U, 0xbcd341623bf39c36U, 0xbc46ca1e3c8ec5b6U,
  0xbbebed96bca6529fU, 0x3b4c08efbc299858U, 0xbc34b06b3b9cc240U, 0x3c949108bcb78ea9U,
  0x3c3c73b6bc987bceU, 0xba514f5c3c14cf57U, 0xbcbfe9233c30f1e7U, 0x3bcd80c2bc022021U,
  0x3c4d24b63a8d59e0U, 0x3c7231973c95135fU, 0x3c25a1343c8f5242U, 0xbcbebd1d3c97643bU,
  0xbcf2b848bcd3961bU, 0x3c9b5bd2bb093199U, 0x3c117ccc3c013d0fU, 0xbc38a8673c09fcf9U,
  0x3c0d4c86bccfeab4U, 0x3b794cabbb9eeafaU, 0xbc82d87abbfd381fU, 0x3c1d5d87bc9f2d8bU,
  0xbc963792bc7a29f0U, 0xbb2cd37f3b3c6e96U, 0x3c10d4b9bc691eedU, 0x3ab42a83bb1ab534U,
  0xbcb62d94bcb5988dU, 0xbc6eb199bcfb69c4U, 0x3c34b8ecbc1de8e8U, 0xbcbefe8b3c58200aU,
  0x3bb58818bb9787e4U, 0x3c942734bbd27781U, 0xbc83fc083c965c87U, 0xbc51f0dfbcf5b139U,
  0x3b4d65d63c884d68U, 0x3a6602623c191525U, 0xbcaac3113bc2442bU, 0xbc4ce36fbbd96fd5U,
  0xbb11db8bb9ae0020U, 0xbc69ff8f3b922786U, 0x3c56f2a43bf01ab5U, 0xbbe682f4bce8bb6fU,
  0xbcf1acc6bc0df3d9U, 0xbcc8e64bbc996f3cU, 0x3b69e4f1bca87be6U, 0x3c537d123a4e5129U,
  0xbc19378e3c63bc73U, 0xbcb94868bbab0dfeU, 0x3bcdbcb2bb8e250fU, 0xbce1920cbca0d63eU,
  0xbb0e0f84bc8baf45U, 0x3c39193ebb77c748U, 0xbc948770bc494fd3U, 0xbb5f5052bab50422U,
  0xbbfa6ee8bce039a7U, 0xbc9188613b8c4df9U, 0xbcf049a3bcd44476U, 0xbc62e5a9bca04183U,
  0x3bad2b89bb8f898dU, 0x3a2e5b8abcc833ffU, 0x3c5d719bbc3c989bU, 0xbcec2202bcffb380U,
  0x3ba80671bc0493f9U, 0x392ca9b33be28995U, 0xbc5a81fd3bd3b8cdU, 0xb9e834b1bbf16a4cU,
  0xbc7c91dfbcd25ac6U, 0xbc2cc0a9bc24fc9cU, 0x3b00eaf03c6f9e1bU, 0x3c3f699c3c1babdcU,
  0x3bc189e7bc6de8a5U, 0x3ba04003bbbce490U, 0xbc927f973b936a91U, 0x3c88b8edbc9f2a68U,
  0xbb7cce29bcd0d102U, 0x3c8a09693b401d68U, 0xbb6e03dabb9ef457U, 0x3bcbfa613c96086aU,
  0x3c268e16bbfe2c9aU, 0xbcc98d073c3c86b3U, 0xbc7d9bdbbc754f3aU, 0x3c3e6672bcb07e31U,
